{
    "version": "1.0",
    "truncation": null,
    "padding": null,
    "added_tokens": [
      {
        "id": 0,
        "content": "<|padding|>",
        "single_word": false,
        "lstrip": false,
        "rstrip": false,
        "normalized": false,
        "special": true
      },
      {
        "id": 1,
        "content": "<|user|>",
        "single_word": false,
        "lstrip": false,
        "rstrip": false,
        "normalized": false,
        "special": true
      },
      {
        "id": 2,
        "content": "<|assistant|>",
        "single_word": false,
        "lstrip": false,
        "rstrip": false,
        "normalized": false,
        "special": true
      },
      {
        "id": 3,
        "content": "<|endoftext|>",
        "single_word": false,
        "lstrip": false,
        "rstrip": false,
        "normalized": false,
        "special": true
      }
    ],
    "normalizer": {
      "type": "BertNormalizer",
      "clean_text": true,
      "handle_chinese_chars": true,
      "strip_accents": null,
      "lowercase": false
    },
    "pre_tokenizer": {
      "type": "ByteLevel",
      "add_prefix_space": false,
      "trim_offsets": true,
      "use_regex": true
    },
    "post_processor": {
      "type": "TemplateProcessing",
      "single": [
        {
          "Sequence": {
            "id": "A",
            "type_id": 0
          }
        }
      ],
      "pair": [
        {
          "Sequence": {
            "id": "A",
            "type_id": 0
          }
        },
        {
          "Sequence": {
            "id": "B",
            "type_id": 0
          }
        }
      ],
      "special_tokens": {
        "<|assistant|>": {
          "id": "<|assistant|>",
          "ids": [
            2
          ],
          "tokens": [
            "<|assistant|>"
          ]
        },
        "<|endoftext|>": {
          "id": "<|endoftext|>",
          "ids": [
            3
          ],
          "tokens": [
            "<|endoftext|>"
          ]
        },
        "<|padding|>": {
          "id": "<|padding|>",
          "ids": [
            0
          ],
          "tokens": [
            "<|padding|>"
          ]
        },
        "<|user|>": {
          "id": "<|user|>",
          "ids": [
            1
          ],
          "tokens": [
            "<|user|>"
          ]
        }
      }
    },
    "decoder": {
      "type": "ByteLevel",
      "add_prefix_space": true,
      "trim_offsets": true,
      "use_regex": true
    },
    "model": {
      "type": "BPE",
      "dropout": null,
      "unk_token": null,
      "continuing_subword_prefix": null,
      "end_of_word_suffix": null,
      "fuse_unk": false,
      "byte_fallback": false,
      "ignore_merges": false,
      "vocab": {
        "<|padding|>": 0,
        "<|user|>": 1,
        "<|assistant|>": 2,
        "<|endoftext|>": 3,
        "!": 4,
        "\"": 5,
        "#": 6,
        "$": 7,
        "%": 8,
        "&": 9,
        "'": 10,
        "(": 11,
        ")": 12,
        "*": 13,
        "+": 14,
        ",": 15,
        "-": 16,
        ".": 17,
        "/": 18,
        "0": 19,
        "1": 20,
        "2": 21,
        "3": 22,
        "4": 23,
        "5": 24,
        "6": 25,
        "7": 26,
        "8": 27,
        "9": 28,
        ":": 29,
        ";": 30,
        "<": 31,
        "=": 32,
        ">": 33,
        "?": 34,
        "@": 35,
        "A": 36,
        "B": 37,
        "C": 38,
        "D": 39,
        "E": 40,
        "F": 41,
        "G": 42,
        "H": 43,
        "I": 44,
        "J": 45,
        "K": 46,
        "L": 47,
        "M": 48,
        "N": 49,
        "O": 50,
        "P": 51,
        "Q": 52,
        "R": 53,
        "S": 54,
        "T": 55,
        "U": 56,
        "V": 57,
        "W": 58,
        "X": 59,
        "Y": 60,
        "Z": 61,
        "[": 62,
        "\\": 63,
        "]": 64,
        "^": 65,
        "_": 66,
        "`": 67,
        "a": 68,
        "b": 69,
        "c": 70,
        "d": 71,
        "e": 72,
        "f": 73,
        "g": 74,
        "h": 75,
        "i": 76,
        "j": 77,
        "k": 78,
        "l": 79,
        "m": 80,
        "n": 81,
        "o": 82,
        "p": 83,
        "q": 84,
        "r": 85,
        "s": 86,
        "t": 87,
        "u": 88,
        "v": 89,
        "w": 90,
        "x": 91,
        "y": 92,
        "z": 93,
        "{": 94,
        "|": 95,
        "}": 96,
        "~": 97,
        "¡": 98,
        "¢": 99,
        "£": 100,
        "¤": 101,
        "¥": 102,
        "¦": 103,
        "§": 104,
        "¨": 105,
        "©": 106,
        "ª": 107,
        "«": 108,
        "¬": 109,
        "®": 110,
        "¯": 111,
        "°": 112,
        "±": 113,
        "²": 114,
        "³": 115,
        "´": 116,
        "µ": 117,
        "¶": 118,
        "·": 119,
        "¸": 120,
        "¹": 121,
        "º": 122,
        "»": 123,
        "¼": 124,
        "½": 125,
        "¾": 126,
        "¿": 127,
        "À": 128,
        "Á": 129,
        "Â": 130,
        "Ã": 131,
        "Ä": 132,
        "Å": 133,
        "Æ": 134,
        "Ç": 135,
        "È": 136,
        "É": 137,
        "Ê": 138,
        "Ë": 139,
        "Ì": 140,
        "Í": 141,
        "Î": 142,
        "Ï": 143,
        "Ð": 144,
        "Ñ": 145,
        "Ò": 146,
        "Ó": 147,
        "Ô": 148,
        "Õ": 149,
        "Ö": 150,
        "×": 151,
        "Ø": 152,
        "Ù": 153,
        "Ú": 154,
        "Û": 155,
        "Ü": 156,
        "Ý": 157,
        "Þ": 158,
        "ß": 159,
        "à": 160,
        "á": 161,
        "â": 162,
        "ã": 163,
        "ä": 164,
        "å": 165,
        "æ": 166,
        "ç": 167,
        "è": 168,
        "é": 169,
        "ê": 170,
        "ë": 171,
        "ì": 172,
        "í": 173,
        "î": 174,
        "ï": 175,
        "ð": 176,
        "ñ": 177,
        "ò": 178,
        "ó": 179,
        "ô": 180,
        "õ": 181,
        "ö": 182,
        "÷": 183,
        "ø": 184,
        "ù": 185,
        "ú": 186,
        "û": 187,
        "ü": 188,
        "ý": 189,
        "þ": 190,
        "ÿ": 191,
        "Ā": 192,
        "ā": 193,
        "Ă": 194,
        "ă": 195,
        "Ą": 196,
        "ą": 197,
        "Ć": 198,
        "ć": 199,
        "Ĉ": 200,
        "ĉ": 201,
        "Ċ": 202,
        "ċ": 203,
        "Č": 204,
        "č": 205,
        "Ď": 206,
        "ď": 207,
        "Đ": 208,
        "đ": 209,
        "Ē": 210,
        "ē": 211,
        "Ĕ": 212,
        "ĕ": 213,
        "Ė": 214,
        "ė": 215,
        "Ę": 216,
        "ę": 217,
        "Ě": 218,
        "ě": 219,
        "Ĝ": 220,
        "ĝ": 221,
        "Ğ": 222,
        "ğ": 223,
        "Ġ": 224,
        "ġ": 225,
        "Ģ": 226,
        "ģ": 227,
        "Ĥ": 228,
        "ĥ": 229,
        "Ħ": 230,
        "ħ": 231,
        "Ĩ": 232,
        "ĩ": 233,
        "Ī": 234,
        "ī": 235,
        "Ĭ": 236,
        "ĭ": 237,
        "Į": 238,
        "į": 239,
        "İ": 240,
        "ı": 241,
        "Ĳ": 242,
        "ĳ": 243,
        "Ĵ": 244,
        "ĵ": 245,
        "Ķ": 246,
        "ķ": 247,
        "ĸ": 248,
        "Ĺ": 249,
        "ĺ": 250,
        "Ļ": 251,
        "ļ": 252,
        "Ľ": 253,
        "ľ": 254,
        "Ŀ": 255,
        "ŀ": 256,
        "Ł": 257,
        "ł": 258,
        "Ń": 259,
        "Ġt": 260,
        "Ġa": 261,
        "he": 262,
        "in": 263,
        "re": 264,
        "on": 265,
        "Ġthe": 266,
        "er": 267,
        "Ġs": 268,
        "at": 269,
        "Ġw": 270,
        "Ġo": 271,
        "en": 272,
        "Ġc": 273,
        "it": 274,
        "is": 275,
        "an": 276,
        "or": 277,
        "es": 278,
        "Ġb": 279,
        "ed": 280,
        "Ġf": 281,
        "ing": 282,
        "Ġp": 283,
        "ou": 284,
        "Ġan": 285,
        "al": 286,
        "ar": 287,
        "Ġto": 288,
        "Ġm": 289,
        "Ġof": 290,
        "Ġin": 291,
        "Ġd": 292,
        "Ġh": 293,
        "Ġand": 294,
        "ic": 295,
        "as": 296,
        "le": 297,
        "Ġth": 298,
        "ion": 299,
        "om": 300,
        "ll": 301,
        "ent": 302,
        "Ġn": 303,
        "Ġl": 304,
        "st": 305,
        "Ġre": 306,
        "ve": 307,
        "Ġe": 308,
        "ro": 309,
        "ly": 310,
        "Ġbe": 311,
        "Ġg": 312,
        "ĠT": 313,
        "ct": 314,
        "ĠS": 315,
        "id": 316,
        "ot": 317,
        "ĠI": 318,
        "ut": 319,
        "et": 320,
        "ĠA": 321,
        "Ġis": 322,
        "Ġon": 323,
        "im": 324,
        "am": 325,
        "ow": 326,
        "ay": 327,
        "ad": 328,
        "se": 329,
        "Ġthat": 330,
        "ĠC": 331,
        "ig": 332,
        "Ġfor": 333,
        "ac": 334,
        "Ġy": 335,
        "ver": 336,
        "ur": 337,
        "Ġu": 338,
        "ld": 339,
        "Ġst": 340,
        "ĠM": 341,
        "'s": 342,
        "Ġhe": 343,
        "Ġit": 344,
        "ation": 345,
        "ith": 346,
        "ir": 347,
        "ce": 348,
        "Ġyou": 349,
        "il": 350,
        "ĠB": 351,
        "Ġwh": 352,
        "ol": 353,
        "ĠP": 354,
        "Ġwith": 355,
        "Ġ1": 356,
        "ter": 357,
        "ch": 358,
        "Ġas": 359,
        "Ġwe": 360,
        "Ġ(": 361,
        "nd": 362,
        "ill": 363,
        "ĠD": 364,
        "if": 365,
        "Ġ2": 366,
        "ag": 367,
        "ers": 368,
        "ke": 369,
        "Ġ\"": 370,
        "ĠH": 371,
        "em": 372,
        "Ġcon": 373,
        "ĠW": 374,
        "ĠR": 375,
        "her": 376,
        "Ġwas": 377,
        "Ġr": 378,
        "od": 379,
        "ĠF": 380,
        "ul": 381,
        "ate": 382,
        "Ġat": 383,
        "ri": 384,
        "pp": 385,
        "ore": 386,
        "ĠThe": 387,
        "Ġse": 388,
        "us": 389,
        "Ġpro": 390,
        "Ġha": 391,
        "um": 392,
        "Ġare": 393,
        "Ġde": 394,
        "ain": 395,
        "and": 396,
        "Ġor": 397,
        "igh": 398,
        "est": 399,
        "ist": 400,
        "ab": 401,
        "rom": 402,
        "ĠN": 403,
        "th": 404,
        "Ġcom": 405,
        "ĠG": 406,
        "un": 407,
        "op": 408,
        "00": 409,
        "ĠL": 410,
        "Ġnot": 411,
        "ess": 412,
        "Ġex": 413,
        "Ġv": 414,
        "res": 415,
        "ĠE": 416,
        "ew": 417,
        "ity": 418,
        "ant": 419,
        "Ġby": 420,
        "el": 421,
        "os": 422,
        "ort": 423,
        "oc": 424,
        "qu": 425,
        "Ġfrom": 426,
        "Ġhave": 427,
        "Ġsu": 428,
        "ive": 429,
        "ould": 430,
        "Ġsh": 431,
        "Ġthis": 432,
        "nt": 433,
        "ra": 434,
        "pe": 435,
        "ight": 436,
        "art": 437,
        "ment": 438,
        "Ġal": 439,
        "ust": 440,
        "end": 441,
        "--": 442,
        "all": 443,
        "ĠO": 444,
        "ack": 445,
        "Ġch": 446,
        "Ġle": 447,
        "ies": 448,
        "red": 449,
        "ard": 450,
        "âĢ": 451,
        "out": 452,
        "ĠJ": 453,
        "Ġab": 454,
        "ear": 455,
        "iv": 456,
        "ally": 457,
        "our": 458,
        "ost": 459,
        "gh": 460,
        "pt": 461,
        "Ġpl": 462,
        "ast": 463,
        "Ġcan": 464,
        "ak": 465,
        "ome": 466,
        "ud": 467,
        "The": 468,
        "Ġhis": 469,
        "Ġdo": 470,
        "Ġgo": 471,
        "Ġhas": 472,
        "ge": 473,
        "'t": 474,
        "ĠU": 475,
        "rou": 476,
        "Ġsa": 477,
        "Ġj": 478,
        "Ġbut": 479,
        "Ġwor": 480,
        "Ġall": 481,
        "ect": 482,
        "Ġk": 483,
        "ame": 484,
        "Ġwill": 485,
        "ok": 486,
        "Ġwhe": 487,
        "Ġthey": 488,
        "ide": 489,
        "01": 490,
        "ff": 491,
        "ich": 492,
        "pl": 493,
        "ther": 494,
        "Ġtr": 495,
        "..": 496,
        "Ġint": 497,
        "ie": 498,
        "ure": 499,
        "age": 500,
        "Ġne": 501,
        "ial": 502,
        "ap": 503,
        "ine": 504,
        "ice": 505,
        "Ġme": 506,
        "Ġout": 507,
        "ans": 508,
        "one": 509,
        "ong": 510,
        "ions": 511,
        "Ġwho": 512,
        "ĠK": 513,
        "Ġup": 514,
        "Ġtheir": 515,
        "Ġad": 516,
        "Ġ3": 517,
        "Ġus": 518,
        "ated": 519,
        "ous": 520,
        "Ġmore": 521,
        "ue": 522,
        "og": 523,
        "ĠSt": 524,
        "ind": 525,
        "ike": 526,
        "Ġso": 527,
        "ime": 528,
        "per": 529,
        ".\"": 530,
        "ber": 531,
        "iz": 532,
        "act": 533,
        "Ġone": 534,
        "Ġsaid": 535,
        "Ġ-": 536,
        "are": 537,
        "Ġyour": 538,
        "cc": 539,
        "ĠTh": 540,
        "Ġcl": 541,
        "ep": 542,
        "ake": 543,
        "able": 544,
        "ip": 545,
        "Ġcont": 546,
        "Ġwhich": 547,
        "ia": 548,
        "Ġim": 549,
        "Ġabout": 550,
        "Ġwere": 551,
        "very": 552,
        "ub": 553,
        "Ġhad": 554,
        "Ġen": 555,
        "Ġcomp": 556,
        ",\"": 557,
        "ĠIn": 558,
        "Ġun": 559,
        "Ġag": 560,
        "ire": 561,
        "ace": 562,
        "au": 563,
        "ary": 564,
        "Ġwould": 565,
        "ass": 566,
        "ry": 567,
        "ĠâĢ": 568,
        "cl": 569,
        "ook": 570,
        "ere": 571,
        "so": 572,
        "ĠV": 573,
        "ign": 574,
        "ib": 575,
        "Ġoff": 576,
        "Ġte": 577,
        "ven": 578,
        "ĠY": 579,
        "ile": 580,
        "ose": 581,
        "ite": 582,
        "orm": 583,
        "Ġ201": 584,
        "Ġres": 585,
        "Ġman": 586,
        "Ġper": 587,
        "Ġother": 588,
        "ord": 589,
        "ult": 590,
        "Ġbeen": 591,
        "Ġlike": 592,
        "ase": 593,
        "ance": 594,
        "ks": 595,
        "ays": 596,
        "own": 597,
        "ence": 598,
        "Ġdis": 599,
        "ction": 600,
        "Ġany": 601,
        "Ġapp": 602,
        "Ġsp": 603,
        "int": 604,
        "ress": 605,
        "ations": 606,
        "ail": 607,
        "Ġ4": 608,
        "ical": 609,
        "Ġthem": 610,
        "Ġher": 611,
        "ount": 612,
        "ĠCh": 613,
        "Ġar": 614,
        "Ġif": 615,
        "Ġthere": 616,
        "Ġpe": 617,
        "Ġyear": 618,
        "av": 619,
        "Ġmy": 620,
        "Ġsome": 621,
        "Ġwhen": 622,
        "ough": 623,
        "ach": 624,
        "Ġthan": 625,
        "ru": 626,
        "ond": 627,
        "ick": 628,
        "Ġover": 629,
        "vel": 630,
        "Ġqu": 631,
        "ĊĊ": 632,
        "Ġsc": 633,
        "reat": 634,
        "ree": 635,
        "ĠIt": 636,
        "ound": 637,
        "port": 638,
        "Ġalso": 639,
        "Ġpart": 640,
        "fter": 641,
        "Ġkn": 642,
        "Ġbec": 643,
        "Ġtime": 644,
        "ens": 645,
        "Ġ5": 646,
        "ople": 647,
        "Ġwhat": 648,
        "Ġno": 649,
        "du": 650,
        "mer": 651,
        "ang": 652,
        "Ġnew": 653,
        "----": 654,
        "Ġget": 655,
        "ory": 656,
        "ition": 657,
        "ings": 658,
        "Ġjust": 659,
        "Ġinto": 660,
        "Ġ0": 661,
        "ents": 662,
        "ove": 663,
        "te": 664,
        "Ġpeople": 665,
        "Ġpre": 666,
        "Ġits": 667,
        "Ġrec": 668,
        "Ġtw": 669,
        "ian": 670,
        "irst": 671,
        "ark": 672,
        "ors": 673,
        "Ġwork": 674,
        "ade": 675,
        "ob": 676,
        "Ġshe": 677,
        "Ġour": 678,
        "wn": 679,
        "ink": 680,
        "lic": 681,
        "Ġ19": 682,
        "ĠHe": 683,
        "ish": 684,
        "nder": 685,
        "ause": 686,
        "Ġhim": 687,
        "ons": 688,
        "Ġ[": 689,
        "Ġro": 690,
        "form": 691,
        "ild": 692,
        "ates": 693,
        "vers": 694,
        "Ġonly": 695,
        "oll": 696,
        "Ġspe": 697,
        "ck": 698,
        "ell": 699,
        "amp": 700,
        "Ġacc": 701,
        "Ġbl": 702,
        "ious": 703,
        "urn": 704,
        "ft": 705,
        "ood": 706,
        "Ġhow": 707,
        "hed": 708,
        "Ġ'": 709,
        "Ġafter": 710,
        "aw": 711,
        "Ġatt": 712,
        "ov": 713,
        "ne": 714,
        "Ġplay": 715,
        "erv": 716,
        "ict": 717,
        "Ġcould": 718,
        "itt": 719,
        "Ġam": 720,
        "Ġfirst": 721,
        "Ġ6": 722,
        "Ġact": 723,
        "Ġ$": 724,
        "ec": 725,
        "hing": 726,
        "ual": 727,
        "ull": 728,
        "Ġcomm": 729,
        "oy": 730,
        "old": 731,
        "ces": 732,
        "ater": 733,
        "Ġfe": 734,
        "Ġbet": 735,
        "we": 736,
        "iff": 737,
        "Ġtwo": 738,
        "ock": 739,
        "Ġback": 740,
        ").": 741,
        "ident": 742,
        "Ġunder": 743,
        "rough": 744,
        "sel": 745,
        "xt": 746,
        "Ġmay": 747,
        "round": 748,
        "Ġpo": 749,
        "ph": 750,
        "iss": 751,
        "Ġdes": 752,
        "Ġmost": 753,
        "Ġdid": 754,
        "Ġadd": 755,
        "ject": 756,
        "Ġinc": 757,
        "fore": 758,
        "Ġpol": 759,
        "ont": 760,
        "Ġagain": 761,
        "clud": 762,
        "tern": 763,
        "Ġknow": 764,
        "Ġneed": 765,
        "Ġcons": 766,
        "Ġco": 767,
        "Ġ.": 768,
        "Ġwant": 769,
        "Ġsee": 770,
        "Ġ7": 771,
        "ning": 772,
        "iew": 773,
        "ĠThis": 774,
        "ced": 775,
        "Ġeven": 776,
        "Ġind": 777,
        "ty": 778,
        "ĠWe": 779,
        "ath": 780,
        "Ġthese": 781,
        "Ġpr": 782,
        "Ġuse": 783,
        "Ġbecause": 784,
        "Ġfl": 785,
        "ng": 786,
        "Ġnow": 787,
        "ĠâĢĵ": 788,
        "com": 789,
        "ise": 790,
        "Ġmake": 791,
        "Ġthen": 792,
        "ower": 793,
        "Ġevery": 794,
        "ĠUn": 795,
        "Ġsec": 796,
        "oss": 797,
        "uch": 798,
        "Ġem": 799,
        "Ġ=": 800,
        "ĠRe": 801,
        "ied": 802,
        "rit": 803,
        "Ġinv": 804,
        "lect": 805,
        "Ġsupp": 806,
        "ating": 807,
        "Ġlook": 808,
        "man": 809,
        "pect": 810,
        "Ġ8": 811,
        "row": 812,
        "Ġbu": 813,
        "Ġwhere": 814,
        "ific": 815,
        "Ġyears": 816,
        "ily": 817,
        "Ġdiff": 818,
        "Ġshould": 819,
        "Ġrem": 820,
        "Th": 821,
        "In": 822,
        "Ġev": 823,
        "day": 824,
        "'re": 825,
        "rib": 826,
        "Ġrel": 827,
        "ss": 828,
        "Ġdef": 829,
        "Ġright": 830,
        "Ġsy": 831,
        "),": 832,
        "les": 833,
        "000": 834,
        "hen": 835,
        "Ġthrough": 836,
        "ĠTr": 837,
        "__": 838,
        "Ġway": 839,
        "Ġdon": 840,
        "Ġ,": 841,
        "Ġ10": 842,
        "ased": 843,
        "Ġass": 844,
        "ublic": 845,
        "Ġreg": 846,
        "ĠAnd": 847,
        "ix": 848,
        "Ġvery": 849,
        "Ġinclud": 850,
        "other": 851,
        "Ġimp": 852,
        "oth": 853,
        "Ġsub": 854,
        "ĠâĢĶ": 855,
        "Ġbeing": 856,
        "arg": 857,
        "ĠWh": 858,
        "==": 859,
        "ible": 860,
        "Ġdoes": 861,
        "ange": 862,
        "ram": 863,
        "Ġ9": 864,
        "ert": 865,
        "ps": 866,
        "ited": 867,
        "ational": 868,
        "Ġbr": 869,
        "Ġdown": 870,
        "Ġmany": 871,
        "aking": 872,
        "Ġcall": 873,
        "uring": 874,
        "ities": 875,
        "Ġph": 876,
        "ics": 877,
        "als": 878,
        "Ġdec": 879,
        "ative": 880,
        "ener": 881,
        "Ġbefore": 882,
        "ility": 883,
        "Ġwell": 884,
        "Ġmuch": 885,
        "erson": 886,
        "Ġthose": 887,
        "Ġsuch": 888,
        "Ġke": 889,
        "Ġend": 890,
        "ĠBut": 891,
        "ason": 892,
        "ting": 893,
        "Ġlong": 894,
        "ef": 895,
        "Ġthink": 896,
        "ys": 897,
        "Ġbel": 898,
        "Ġsm": 899,
        "its": 900,
        "ax": 901,
        "Ġown": 902,
        "Ġprov": 903,
        "Ġset": 904,
        "ife": 905,
        "ments": 906,
        "ble": 907,
        "ward": 908,
        "Ġshow": 909,
        "Ġpres": 910,
        "ms": 911,
        "omet": 912,
        "Ġob": 913,
        "Ġsay": 914,
        "ĠSh": 915,
        "ts": 916,
        "ful": 917,
        "Ġeff": 918,
        "Ġgu": 919,
        "Ġinst": 920,
        "und": 921,
        "ren": 922,
        "cess": 923,
        "Ġent": 924,
        "ĠYou": 925,
        "Ġgood": 926,
        "Ġstart": 927,
        "ince": 928,
        "Ġmade": 929,
        "tt": 930,
        "stem": 931,
        "olog": 932,
        "up": 933,
        "Ġ|": 934,
        "ump": 935,
        "Ġhel": 936,
        "vern": 937,
        "ular": 938,
        "ually": 939,
        "Ġac": 940,
        "Ġmon": 941,
        "Ġlast": 942,
        "Ġ200": 943,
        "10": 944,
        "Ġstud": 945,
        "ures": 946,
        "ĠAr": 947,
        "self": 948,
        "ars": 949,
        "meric": 950,
        "ues": 951,
        "cy": 952,
        "Ġmin": 953,
        "ollow": 954,
        "Ġcol": 955,
        "io": 956,
        "Ġmod": 957,
        "Ġcount": 958,
        "ĠCom": 959,
        "hes": 960,
        "Ġfin": 961,
        "air": 962,
        "ier": 963,
        "âĢĶ": 964,
        "read": 965,
        "ank": 966,
        "atch": 967,
        "ever": 968,
        "Ġstr": 969,
        "Ġpoint": 970,
        "ork": 971,
        "ĠNew": 972,
        "Ġsur": 973,
        "ool": 974,
        "alk": 975,
        "ement": 976,
        "Ġused": 977,
        "ract": 978,
        "ween": 979,
        "Ġsame": 980,
        "oun": 981,
        "ĠAl": 982,
        "ci": 983,
        "Ġdiffere": 984,
        "Ġwhile": 985,
        "--------": 986,
        "Ġgame": 987,
        "cept": 988,
        "Ġsim": 989,
        "...": 990,
        "Ġinter": 991,
        "ek": 992,
        "Ġreport": 993,
        "Ġprodu": 994,
        "Ġstill": 995,
        "led": 996,
        "ah": 997,
        "Ġhere": 998,
        "Ġworld": 999,
        "Ġthough": 1000,
        "Ġnum": 1001,
        "arch": 1002,
        "imes": 1003,
        "ale": 1004,
        "ĠSe": 1005,
        "ĠIf": 1006,
        "//": 1007,
        "ĠLe": 1008,
        "Ġret": 1009,
        "Ġref": 1010,
        "Ġtrans": 1011,
        "ner": 1012,
        "ution": 1013,
        "ters": 1014,
        "Ġtake": 1015,
        "ĠCl": 1016,
        "Ġconf": 1017,
        "way": 1018,
        "ave": 1019,
        "Ġgoing": 1020,
        "Ġsl": 1021,
        "ug": 1022,
        "ĠAmeric": 1023,
        "Ġspec": 1024,
        "Ġhand": 1025,
        "Ġbetween": 1026,
        "ists": 1027,
        "ĠDe": 1028,
        "oot": 1029,
        "It": 1030,
        "Ġear": 1031,
        "Ġagainst": 1032,
        "Ġhigh": 1033,
        "gan": 1034,
        "az": 1035,
        "ather": 1036,
        "Ġexp": 1037,
        "Ġop": 1038,
        "Ġins": 1039,
        "Ġgr": 1040,
        "Ġhelp": 1041,
        "Ġrequ": 1042,
        "ets": 1043,
        "ins": 1044,
        "ĠPro": 1045,
        "ism": 1046,
        "Ġfound": 1047,
        "land": 1048,
        "ata": 1049,
        "uss": 1050,
        "ames": 1051,
        "Ġperson": 1052,
        "Ġgreat": 1053,
        "pr": 1054,
        "Ġsign": 1055,
        "ĠAn": 1056,
        "'ve": 1057,
        "Ġsomet": 1058,
        "Ġser": 1059,
        "hip": 1060,
        "Ġrun": 1061,
        "Ġ:": 1062,
        "Ġter": 1063,
        "irect": 1064,
        "Ġfollow": 1065,
        "Ġdet": 1066,
        "ices": 1067,
        "Ġfind": 1068,
        "12": 1069,
        "Ġmem": 1070,
        "Ġcr": 1071,
        "ered": 1072,
        "ex": 1073,
        "Ġext": 1074,
        "uth": 1075,
        "ense": 1076,
        "co": 1077,
        "Ġteam": 1078,
        "ving": 1079,
        "ouse": 1080,
        "ash": 1081,
        "att": 1082,
        "ved": 1083,
        "Ġsystem": 1084,
        "ĠAs": 1085,
        "der": 1086,
        "ives": 1087,
        "min": 1088,
        "Ġlead": 1089,
        "ĠBl": 1090,
        "cent": 1091,
        "Ġaround": 1092,
        "Ġgovern": 1093,
        "Ġcur": 1094,
        "velop": 1095,
        "any": 1096,
        "Ġcour": 1097,
        "alth": 1098,
        "ages": 1099,
        "ize": 1100,
        "Ġcar": 1101,
        "ode": 1102,
        "Ġlaw": 1103,
        "Ġread": 1104,
        "'m": 1105,
        "con": 1106,
        "Ġreal": 1107,
        "Ġsupport": 1108,
        "Ġ12": 1109,
        "....": 1110,
        "Ġreally": 1111,
        "ness": 1112,
        "Ġfact": 1113,
        "Ġday": 1114,
        "Ġboth": 1115,
        "ying": 1116,
        "Ġserv": 1117,
        "ĠFor": 1118,
        "Ġthree": 1119,
        "Ġwom": 1120,
        "Ġmed": 1121,
        "ody": 1122,
        "ĠThey": 1123,
        "50": 1124,
        "Ġexper": 1125,
        "ton": 1126,
        "Ġeach": 1127,
        "akes": 1128,
        "Ġche": 1129,
        "Ġcre": 1130,
        "ines": 1131,
        "Ġrep": 1132,
        "19": 1133,
        "gg": 1134,
        "illion": 1135,
        "Ġgrou": 1136,
        "ute": 1137,
        "ik": 1138,
        "We": 1139,
        "get": 1140,
        "ER": 1141,
        "Ġmet": 1142,
        "Ġsays": 1143,
        "ox": 1144,
        "Ġduring": 1145,
        "ern": 1146,
        "ized": 1147,
        "ared": 1148,
        "Ġfam": 1149,
        "ically": 1150,
        "Ġhapp": 1151,
        "ĠIs": 1152,
        "Ġchar": 1153,
        "med": 1154,
        "vent": 1155,
        "Ġgener": 1156,
        "ient": 1157,
        "ple": 1158,
        "iet": 1159,
        "rent": 1160,
        "11": 1161,
        "ves": 1162,
        "ption": 1163,
        "Ġ20": 1164,
        "formation": 1165,
        "Ġcor": 1166,
        "Ġoffic": 1167,
        "ield": 1168,
        "Ġtoo": 1169,
        "ision": 1170,
        "Ġinf": 1171,
        "ĠZ": 1172,
        "the": 1173,
        "oad": 1174,
        "Ġpublic": 1175,
        "Ġprog": 1176,
        "ric": 1177,
        "**": 1178,
        "Ġwar": 1179,
        "Ġpower": 1180,
        "view": 1181,
        "Ġfew": 1182,
        "Ġloc": 1183,
        "Ġdifferent": 1184,
        "Ġstate": 1185,
        "Ġhead": 1186,
        "'ll": 1187,
        "Ġposs": 1188,
        "Ġstat": 1189,
        "ret": 1190,
        "ants": 1191,
        "Ġval": 1192,
        "Ġiss": 1193,
        "Ġcle": 1194,
        "ivers": 1195,
        "anc": 1196,
        "Ġexpl": 1197,
        "Ġanother": 1198,
        "ĠQ": 1199,
        "Ġav": 1200,
        "thing": 1201,
        "nce": 1202,
        "Wh": 1203,
        "Ġchild": 1204,
        "Ġsince": 1205,
        "ired": 1206,
        "less": 1207,
        "Ġlife": 1208,
        "Ġdevelop": 1209,
        "ittle": 1210,
        "Ġdep": 1211,
        "Ġpass": 1212,
        "ãĥ": 1213,
        "Ġturn": 1214,
        "orn": 1215,
        "This": 1216,
        "bers": 1217,
        "ross": 1218,
        "ĠAd": 1219,
        "Ġfr": 1220,
        "Ġresp": 1221,
        "Ġsecond": 1222,
        "oh": 1223,
        "Ġ/": 1224,
        "Ġdisc": 1225,
        "Ġ&": 1226,
        "Ġsomething": 1227,
        "Ġcomple": 1228,
        "Ġed": 1229,
        "Ġfil": 1230,
        "Ġmonth": 1231,
        "aj": 1232,
        "uc": 1233,
        "Ġgovernment": 1234,
        "Ġwithout": 1235,
        "Ġleg": 1236,
        "Ġdist": 1237,
        "Ġput": 1238,
        "Ġquest": 1239,
        "ann": 1240,
        "Ġprot": 1241,
        "20": 1242,
        "Ġnever": 1243,
        "ience": 1244,
        "Ġlevel": 1245,
        "Ġart": 1246,
        "Ġthings": 1247,
        "Ġmight": 1248,
        "Ġeffect": 1249,
        "Ġcontro": 1250,
        "Ġcent": 1251,
        "Ġ18": 1252,
        "Ġallow": 1253,
        "Ġbelie": 1254,
        "chool": 1255,
        "ott": 1256,
        "Ġincre": 1257,
        "Ġfeel": 1258,
        "Ġresult": 1259,
        "Ġlot": 1260,
        "Ġfun": 1261,
        "ote": 1262,
        "Ġty": 1263,
        "erest": 1264,
        "Ġcontin": 1265,
        "Ġusing": 1266,
        "Ġbig": 1267,
        "201": 1268,
        "Ġask": 1269,
        "Ġbest": 1270,
        "Ġ)": 1271,
        "IN": 1272,
        "Ġopp": 1273,
        "30": 1274,
        "Ġnumber": 1275,
        "iness": 1276,
        "St": 1277,
        "lease": 1278,
        "Ġca": 1279,
        "Ġmust": 1280,
        "Ġdirect": 1281,
        "Ġgl": 1282,
        "Ġ<": 1283,
        "Ġopen": 1284,
        "Ġpost": 1285,
        "Ġcome": 1286,
        "Ġseem": 1287,
        "ording": 1288,
        "Ġweek": 1289,
        "ately": 1290,
        "ital": 1291,
        "Ġel": 1292,
        "riend": 1293,
        "Ġfar": 1294,
        "Ġtra": 1295,
        "inal": 1296,
        "Ġpri": 1297,
        "ĠUS": 1298,
        "Ġplace": 1299,
        "Ġform": 1300,
        "Ġtold": 1301,
        "\":": 1302,
        "ains": 1303,
        "ature": 1304,
        "ĠTrump": 1305,
        "Ġstand": 1306,
        "Ġ#": 1307,
        "ider": 1308,
        "ĠFr": 1309,
        "Ġnext": 1310,
        "Ġsoc": 1311,
        "Ġpur": 1312,
        "Ġlet": 1313,
        "Ġlittle": 1314,
        "Ġhum": 1315,
        "Ġi": 1316,
        "ron": 1317,
        "15": 1318,
        "Ġ15": 1319,
        "Ġcommun": 1320,
        "Ġmark": 1321,
        "ĠThere": 1322,
        "Ġwr": 1323,
        "ĠThat": 1324,
        "Ġinformation": 1325,
        "ways": 1326,
        "Ġbus": 1327,
        "app": 1328,
        "Ġinvest": 1329,
        "me": 1330,
        "Ġhard": 1331,
        "ained": 1332,
        "ead": 1333,
        "Ġimport": 1334,
        "Ġappro": 1335,
        "Ġtest": 1336,
        "Ġtri": 1337,
        "Ġrest": 1338,
        "osed": 1339,
        "Ġfull": 1340,
        "Ġcare": 1341,
        "ĠSp": 1342,
        "Ġcase": 1343,
        "ON": 1344,
        "Ġsk": 1345,
        "Ġless": 1346,
        "Ġ+": 1347,
        "Ġpartic": 1348,
        "ĠPl": 1349,
        "ably": 1350,
        "uck": 1351,
        "ished": 1352,
        "chn": 1353,
        "be": 1354,
        "Ġlist": 1355,
        "ator": 1356,
        "Ġtop": 1357,
        "Ġadv": 1358,
        "ĠBe": 1359,
        "ruct": 1360,
        "Ġdem": 1361,
        "ration": 1362,
        "ling": 1363,
        "gy": 1364,
        "reen": 1365,
        "ger": 1366,
        "Ġhome": 1367,
        "Ġleft": 1368,
        "Ġbetter": 1369,
        "Ġdata": 1370,
        "Ġ11": 1371,
        "Ġattack": 1372,
        "Ġproble": 1373,
        "line": 1374,
        "ards": 1375,
        "Ġbeh": 1376,
        "ral": 1377,
        "ĠHow": 1378,
        "ĠShe": 1379,
        "arge": 1380,
        "Ġ--": 1381,
        "://": 1382,
        "Ġbro": 1383,
        "ĠPh": 1384,
        "ats": 1385,
        "Ġbuild": 1386,
        "ww": 1387,
        "ided": 1388,
        "aim": 1389,
        "ases": 1390,
        "ency": 1391,
        "Ġmain": 1392,
        "ined": 1393,
        "Ġincluding": 1394,
        "Ġ{": 1395,
        "Ġgot": 1396,
        "Ġinterest": 1397,
        "Ġkeep": 1398,
        "ĠX": 1399,
        "Ġeas": 1400,
        "aining": 1401,
        "Ġclass": 1402,
        "âĢ¦": 1403,
        "ĠNo": 1404,
        "Ġvar": 1405,
        "Ġsmall": 1406,
        "ample": 1407,
        "AT": 1408,
        "Ġide": 1409,
        "ĠSo": 1410,
        "Ġrece": 1411,
        "Ġpolit": 1412,
        "Ġmov": 1413,
        "Ġplan": 1414,
        "Ġpercent": 1415,
        "iving": 1416,
        "Ġcamp": 1417,
        "Ġpay": 1418,
        "14": 1419,
        "sc": 1420,
        "ised": 1421,
        "Ġunt": 1422,
        "oney": 1423,
        "ploy": 1424,
        "====": 1425,
        "Ġdidn": 1426,
        "ĠInd": 1427,
        "els": 1428,
        "ertain": 1429,
        "Ġpos": 1430,
        "____": 1431,
        "iver": 1432,
        "Ġprocess": 1433,
        "Ġprogram": 1434,
        "ified": 1435,
        "ĠRep": 1436,
        "16": 1437,
        "uro": 1438,
        "ology": 1439,
        "atter": 1440,
        "ina": 1441,
        "Ġname": 1442,
        "ĠAll": 1443,
        "Ġfour": 1444,
        "Ġreturn": 1445,
        "vious": 1446,
        "bs": 1447,
        "Ġcalled": 1448,
        "Ġmove": 1449,
        "ĠSc": 1450,
        "ird": 1451,
        "Ġgroup": 1452,
        "Ġbre": 1453,
        "Ġmen": 1454,
        "Ġcap": 1455,
        "ten": 1456,
        "ee": 1457,
        "Ġdri": 1458,
        "leg": 1459,
        "here": 1460,
        "uthor": 1461,
        "Ġpat": 1462,
        "Ġcurrent": 1463,
        "ides": 1464,
        "Ġpop": 1465,
        "to": 1466,
        "ention": 1467,
        "Ġalways": 1468,
        "Ġmil": 1469,
        "Ġwomen": 1470,
        "Ġ16": 1471,
        "Ġold": 1472,
        "iven": 1473,
        "raph": 1474,
        "ĠOr": 1475,
        "ror": 1476,
        "ently": 1477,
        "Ġnear": 1478,
        "ĠEx": 1479,
        "ream": 1480,
        "sh": 1481,
        "Ġ14": 1482,
        "Ġfree": 1483,
        "ission": 1484,
        "stand": 1485,
        "ĠCon": 1486,
        "ality": 1487,
        "used": 1488,
        "13": 1489,
        "Ġdesign": 1490,
        "Ġchange": 1491,
        "Ġchang": 1492,
        "Ġbo": 1493,
        "Ġvis": 1494,
        "ember": 1495,
        "Ġbook": 1496,
        "ready": 1497,
        "Ġkill": 1498,
        "25": 1499,
        "pped": 1500,
        "Ġaway": 1501,
        "Ġable": 1502,
        "Ġcountry": 1503,
        "Ġconst": 1504,
        "arn": 1505,
        "Ġorder": 1506,
        "AR": 1507,
        "ior": 1508,
        "ium": 1509,
        "orth": 1510,
        "18": 1511,
        "ailable": 1512,
        "Ġsw": 1513,
        "Ġmillion": 1514,
        "Ġ13": 1515,
        "atic": 1516,
        "ted": 1517,
        "ĠGo": 1518,
        "Ġoper": 1519,
        "eng": 1520,
        "Ġthing": 1521,
        "ajor": 1522,
        "conom": 1523,
        "ĠComm": 1524,
        "Ġwhy": 1525,
        "ured": 1526,
        "ural": 1527,
        "Ġschool": 1528,
        "by": 1529,
        "ĠMar": 1530,
        "Ġaff": 1531,
        "Ġdays": 1532,
        "Ġann": 1533,
        "ush": 1534,
        "ane": 1535,
        "If": 1536,
        "eg": 1537,
        "Ġprof": 1538,
        "Ġhealth": 1539,
        "outh": 1540,
        "But": 1541,
        "ional": 1542,
        ".,": 1543,
        "Ġsol": 1544,
        "Ġalready": 1545,
        "Ġ30": 1546,
        "Ġcharact": 1547,
        "He": 1548,
        "Ġfriend": 1549,
        "ES": 1550,
        "ians": 1551,
        "icle": 1552,
        "'d": 1553,
        "ĠOn": 1554,
        "Ġleast": 1555,
        "Ġprom": 1556,
        "Ġdr": 1557,
        "Ġhist": 1558,
        "ither": 1559,
        "Ġest": 1560,
        "iqu": 1561,
        "17": 1562,
        "son": 1563,
        "Ġtell": 1564,
        "Ġtalk": 1565,
        "ohn": 1566,
        "oint": 1567,
        "lection": 1568,
        "AN": 1569,
        "Ġuntil": 1570,
        "augh": 1571,
        "Ġlater": 1572,
        "Ġve": 1573,
        "Ġview": 1574,
        "ending": 1575,
        "ived": 1576,
        "Ġword": 1577,
        "ware": 1578,
        "Ġcost": 1579,
        "Ġenough": 1580,
        "Ġgive": 1581,
        "ĠUnited": 1582,
        "Ġtechn": 1583,
        "arent": 1584,
        "OR": 1585,
        "Ġpar": 1586,
        "ĠDr": 1587,
        "Ġ2016": 1588,
        "rist": 1589,
        "ering": 1590,
        "ĠÂ": 1591,
        "Ġlarge": 1592,
        "side": 1593,
        "acy": 1594,
        "ccess": 1595,
        "Ġwin": 1596,
        "Ġimportant": 1597,
        "Ġ199": 1598,
        "Ġdoesn": 1599,
        "Ġ17": 1600,
        "Ġbusiness": 1601,
        "Ġclear": 1602,
        "Ġrese": 1603,
        "\",": 1604,
        "ury": 1605,
        "Ġequ": 1606,
        "aster": 1607,
        "alf": 1608,
        "ĠAmerican": 1609,
        "nect": 1610,
        "Ġexpect": 1611,
        "iversity": 1612,
        "Ġocc": 1613,
        "ĠFl": 1614,
        "Ġkind": 1615,
        "Ġmean": 1616,
        "Ġpast": 1617,
        "Ġdev": 1618,
        "Ġbas": 1619,
        "let": 1620,
        "raft": 1621,
        "Ġorgan": 1622,
        "Ġdel": 1623,
        "Ġperform": 1624,
        "Ġstory": 1625,
        "Ġseason": 1626,
        "ĠCol": 1627,
        "Ġclaim": 1628,
        "Ġcame": 1629,
        "Ġwithin": 1630,
        "Ġline": 1631,
        "Ġproject": 1632,
        "ĠAt": 1633,
        "Ġcontrol": 1634,
        "ended": 1635,
        "ĠSy": 1636,
        "Ġair": 1637,
        "ization": 1638,
        "Ġ*": 1639,
        "ley": 1640,
        "Ġmoney": 1641,
        "idd": 1642,
        "You": 1643,
        "for": 1644,
        "Ġfamily": 1645,
        "Ġmaking": 1646,
        "Ġbit": 1647,
        "Ġpolice": 1648,
        "Ġhappen": 1649,
        "Ġvers": 1650,
        "ony": 1651,
        "uff": 1652,
        "ĠWhen": 1653,
        "Ġsit": 1654,
        "ideo": 1655,
        "lf": 1656,
        "ison": 1657,
        "Ġsure": 1658,
        "gin": 1659,
        "Ġappear": 1660,
        "Ġlight": 1661,
        "Ġes": 1662,
        "of": 1663,
        "Ġwater": 1664,
        "Ġtimes": 1665,
        "not": 1666,
        "Ġgrow": 1667,
        "Ġcompany": 1668,
        "ĠTe": 1669,
        "ows": 1670,
        "Ġmar": 1671,
        "ource": 1672,
        "iol": 1673,
        "arm": 1674,
        "br": 1675,
        "Ġexample": 1676,
        "Ġconc": 1677,
        "Ġfore": 1678,
        "ĠTo": 1679,
        "pro": 1680,
        "EN": 1681,
        "ries": 1682,
        "Ġ25": 1683,
        "ĠCan": 1684,
        "ney": 1685,
        "Ġactually": 1686,
        "Ġever": 1687,
        "urity": 1688,
        "aken": 1689,
        "aps": 1690,
        "Ġtax": 1691,
        "Ġmajor": 1692,
        "ama": 1693,
        "Ġoften": 1694,
        "eral": 1695,
        "Ġhuman": 1696,
        "Ġjob": 1697,
        "ister": 1698,
        "Ġavailable": 1699,
        "ocr": 1700,
        "enn": 1701,
        "aid": 1702,
        "ivid": 1703,
        "Ġrecord": 1704,
        "?\"": 1705,
        "Ġsing": 1706,
        "ĠAm": 1707,
        "idence": 1708,
        "Ġnews": 1709,
        "ster": 1710,
        "Ġeconom": 1711,
        "Ġfollowing": 1712,
        "ĠBr": 1713,
        "ising": 1714,
        "Ġhour": 1715,
        "most": 1716,
        "ument": 1717,
        "Ġsex": 1718,
        "Ġdesc": 1719,
        "Ġbecome": 1720,
        "ĠEd": 1721,
        "Ġtook": 1722,
        "Ġhaving": 1723,
        "Ġproduct": 1724,
        "ault": 1725,
        "As": 1726,
        "aring": 1727,
        "Ġmeans": 1728,
        "Ġhop": 1729,
        "une": 1730,
        "Ġcho": 1731,
        "Ġcertain": 1732,
        "Ġnon": 1733,
        "Ġdeal": 1734,
        "24": 1735,
        "lement": 1736,
        "oci": 1737,
        "ene": 1738,
        "Ġside": 1739,
        "ĠPr": 1740,
        "ĠMay": 1741,
        "Ġreason": 1742,
        "ued": 1743,
        "ched": 1744,
        "ulation": 1745,
        "Ġelect": 1746,
        "Ġofficial": 1747,
        "Ġpossible": 1748,
        "Ġhold": 1749,
        "ands": 1750,
        "ots": 1751,
        "Ġcity": 1752,
        "ories": 1753,
        "Ġsever": 1754,
        "Ġchildren": 1755,
        "Ġonce": 1756,
        "Ġactiv": 1757,
        "ler": 1758,
        "Ġnight": 1759,
        "itions": 1760,
        "ĠJohn": 1761,
        "ape": 1762,
        "play": 1763,
        "Ġdone": 1764,
        "Ġlim": 1765,
        "Ġworking": 1766,
        "ĠPres": 1767,
        "orld": 1768,
        "eb": 1769,
        "ĠCo": 1770,
        "Ġbody": 1771,
        "ails": 1772,
        "utes": 1773,
        "ĠMr": 1774,
        "Ġwhether": 1775,
        "Ġauthor": 1776,
        "rop": 1777,
        "Ġproper": 1778,
        "Ġseen": 1779,
        ");": 1780,
        "Ġfac": 1781,
        "ĠSu": 1782,
        "Ġcond": 1783,
        "iting": 1784,
        "Ġcourse": 1785,
        "Ġ}": 1786,
        "----------------": 1787,
        "aign": 1788,
        "Ġevent": 1789,
        "Ġeng": 1790,
        "Ġpot": 1791,
        "Ġintern": 1792,
        "iam": 1793,
        "Ġshort": 1794,
        "empt": 1795,
        "ãĤ": 1796,
        "ĠGod": 1797,
        "ilar": 1798,
        "80": 1799,
        "Ġorig": 1800,
        "IS": 1801,
        "ourn": 1802,
        "ability": 1803,
        "itive": 1804,
        "Ġdam": 1805,
        "Ġ100": 1806,
        "Ġpress": 1807,
        "Ġdoing": 1808,
        "Ġprotect": 1809,
        "ring": 1810,
        "Ġthought": 1811,
        "Ġquestion": 1812,
        "rew": 1813,
        "ĠWar": 1814,
        "Ġseveral": 1815,
        "ĠState": 1816,
        "Ġgiven": 1817,
        "Ġfund": 1818,
        "ĠTw": 1819,
        "Ġwent": 1820,
        "ances": 1821,
        "work": 1822,
        "por": 1823,
        "my": 1824,
        "40": 1825,
        "Ġarg": 1826,
        "artment": 1827,
        "ustom": 1828,
        "Ġpolic": 1829,
        "Ġmeet": 1830,
        "Ġcreat": 1831,
        "22": 1832,
        "ĠStates": 1833,
        "Ġgames": 1834,
        "raw": 1835,
        "uture": 1836,
        "Ġunderstand": 1837,
        "urs": 1838,
        "ĠOb": 1839,
        "lish": 1840,
        "sy": 1841,
        "Ġmakes": 1842,
        "Ġwon": 1843,
        "agon": 1844,
        "Ġhtt": 1845,
        "Ġlove": 1846,
        "ential": 1847,
        "Ġcomplete": 1848,
        "par": 1849,
        "ĠIm": 1850,
        "AL": 1851,
        "Ġaccount": 1852,
        "Âł": 1853,
        "ored": 1854,
        "vert": 1855,
        "Ġident": 1856,
        "Ġ2015": 1857,
        "Ġothers": 1858,
        "ĠMin": 1859,
        "iber": 1860,
        "verage": 1861,
        "There": 1862,
        "itional": 1863,
        "dd": 1864,
        "Ġprob": 1865,
        "Ġyoung": 1866,
        "Ġalong": 1867,
        "Ġaccording": 1868,
        "Ġyet": 1869,
        "Ġmembers": 1870,
        "ĠWhat": 1871,
        "oid": 1872,
        "ĠMan": 1873,
        "And": 1874,
        "Ġamong": 1875,
        "ai": 1876,
        "Ġemploy": 1877,
        "ĠRes": 1878,
        "Ġ>": 1879,
        "Ġinvol": 1880,
        "Ġlow": 1881,
        "af": 1882,
        "ĠCar": 1883,
        "Ġhig": 1884,
        "ĠOne": 1885,
        "ĠSec": 1886,
        "ination": 1887,
        "Ġlikely": 1888,
        "Ġant": 1889,
        "aged": 1890,
        "ĠRuss": 1891,
        "Ġben": 1892,
        "Ġrele": 1893,
        "For": 1894,
        "back": 1895,
        "ĠNot": 1896,
        "Ġpresident": 1897,
        "ball": 1898,
        "Ġaccess": 1899,
        "ividual": 1900,
        "ĠDem": 1901,
        "ĠEuro": 1902,
        "60": 1903,
        "Ġknown": 1904,
        "irl": 1905,
        "ĠGr": 1906,
        "Ġearly": 1907,
        "use": 1908,
        "iety": 1909,
        "âĢĵ": 1910,
        "Ġfight": 1911,
        "Ġsent": 1912,
        "Ġtoday": 1913,
        "Ġmarket": 1914,
        "\".": 1915,
        "Ġbased": 1916,
        "Ġstrong": 1917,
        "urther": 1918,
        "Ġdeb": 1919,
        "mber": 1920,
        "Ġproblem": 1921,
        "Ġdeath": 1922,
        "Ġsocial": 1923,
        "imate": 1924,
        "AS": 1925,
        "ortun": 1926,
        "Ġcampaign": 1927,
        "ery": 1928,
        "Ch": 1929,
        "Ġey": 1930,
        "ially": 1931,
        "Ġmus": 1932,
        "wh": 1933,
        "pos": 1934,
        "Ġer": 1935,
        "Ġsaf": 1936,
        "Ġmonths": 1937,
        "iron": 1938,
        "Ġviol": 1939,
        "Ġfive": 1940,
        "Ġstre": 1941,
        "Ġplayers": 1942,
        "inc": 1943,
        "ald": 1944,
        "year": 1945,
        "aun": 1946,
        "Ġsuccess": 1947,
        "Ġpresent": 1948,
        "erence": 1949,
        "Ġ2014": 1950,
        "Ġsugg": 1951,
        "Ġparticular": 1952,
        "Ġtry": 1953,
        "Ġsuggest": 1954,
        "ĠChrist": 1955,
        "ones": 1956,
        "Ġpriv": 1957,
        "23": 1958,
        "Ġcrit": 1959,
        "Ġland": 1960,
        "Ġlocal": 1961,
        "ify": 1962,
        "29": 1963,
        "Ġaut": 1964,
        "ED": 1965,
        "ĠGu": 1966,
        "Ġmult": 1967,
        "Ġpolitical": 1968,
        "Ġasked": 1969,
        "Ġformer": 1970,
        "itter": 1971,
        "ript": 1972,
        "Ġclose": 1973,
        "Ġpract": 1974,
        "ĠYork": 1975,
        "Ġgetting": 1976,
        "Ġacross": 1977,
        "Ġcomb": 1978,
        "Ġbelieve": 1979,
        "Ġz": 1980,
        "Ġtoget": 1981,
        "Ġtogether": 1982,
        "ĠCent": 1983,
        "irc": 1984,
        "Ġindividual": 1985,
        "ĠMc": 1986,
        "27": 1987,
        "isk": 1988,
        "ĠEng": 1989,
        "Ġface": 1990,
        "Ġ24": 1991,
        "Ġvalue": 1992,
        "Ġarea": 1993,
        "ev": 1994,
        "Ġwrit": 1995,
        "ĠPresident": 1996,
        "Ġvot": 1997,
        "Ġkey": 1998,
        "Ġmom": 1999,
        "put": 2000,
        "Ġanything": 2001,
        "Ġexperience": 2002,
        "attle": 2003,
        "Ġmind": 2004,
        "aff": 2005,
        "omm": 2006,
        "Ġfuture": 2007,
        "ged": 2008,
        "Ġcut": 2009,
        "Ġtot": 2010,
        "itch": 2011,
        "Ġvideo": 2012,
        "Ġinvestig": 2013,
        "Ġnet": 2014,
        "ĠMy": 2015,
        "rict": 2016,
        "ien": 2017,
        ".)": 2018,
        "Ġimpro": 2019,
        "though": 2020,
        "wards": 2021,
        "Ġconnect": 2022,
        "ĠMed": 2023,
        "selves": 2024,
        "ensive": 2025,
        "mb": 2026,
        "ober": 2027,
        "ators": 2028,
        "An": 2029,
        "Ġ50": 2030,
        "Ġredu": 2031,
        "resent": 2032,
        "Ġabove": 2033,
        "Ġfre": 2034,
        "ĠEurope": 2035,
        "sw": 2036,
        "Ġamount": 2037,
        "ĠApp": 2038,
        "Ġeither": 2039,
        "Ġmilit": 2040,
        "Ġanal": 2041,
        "Ġfail": 2042,
        "ĠEn": 2043,
        "ales": 2044,
        "Ġspecial": 2045,
        "Ġblack": 2046,
        "IT": 2047,
        "cher": 2048,
        "Ġlooking": 2049,
        "Ġfire": 2050,
        "yn": 2051,
        "Ġalmost": 2052,
        "oon": 2053,
        "Ġstudy": 2054,
        "Ġmiss": 2055,
        "ches": 2056,
        "rown": 2057,
        "Ġtre": 2058,
        "Ġcommunity": 2059,
        "Ġmedia": 2060,
        "Ġfood": 2061,
        "Ġcomes": 2062,
        "ĠUniversity": 2063,
        "Ġsingle": 2064,
        "What": 2065,
        "uly": 2066,
        "Ġhalf": 2067,
        "ague": 2068,
        "hod": 2069,
        "ĠRepublic": 2070,
        "Ġstarted": 2071,
        "Ġquick": 2072,
        "oto": 2073,
        "book": 2074,
        "Ġissue": 2075,
        "itor": 2076,
        "Ġelse": 2077,
        "Ġconsider": 2078,
        "26": 2079,
        "rodu": 2080,
        "Ġtaken": 2081,
        "28": 2082,
        "99": 2083,
        "ĠWith": 2084,
        "Ġtrue": 2085,
        "Ġwa": 2086,
        "Ġtrad": 2087,
        "Ġago": 2088,
        "Ġmess": 2089,
        "ief": 2090,
        "Ġadded": 2091,
        "oke": 2092,
        "Ġbad": 2093,
        "Ġfav": 2094,
        "33": 2095,
        "Ġsimilar": 2096,
        "ask": 2097,
        "ĠDon": 2098,
        "Ġcharacter": 2099,
        "orts": 2100,
        "ĠHouse": 2101,
        "Ġreported": 2102,
        "Ġtype": 2103,
        "val": 2104,
        "iod": 2105,
        "ĠHowever": 2106,
        "Ġtarg": 2107,
        "Ġentire": 2108,
        "pping": 2109,
        "Ġhistory": 2110,
        "Ġlive": 2111,
        "ffic": 2112,
        "........": 2113,
        "ederal": 2114,
        "Ġtrying": 2115,
        "Ġdiscuss": 2116,
        "ĠHar": 2117,
        "aces": 2118,
        "lished": 2119,
        "Ġself": 2120,
        "osp": 2121,
        "rest": 2122,
        "Ġroom": 2123,
        "elt": 2124,
        "Ġfall": 2125,
        "olution": 2126,
        "Ġet": 2127,
        "Ġx": 2128,
        "Ġisn": 2129,
        "Ġidea": 2130,
        "bo": 2131,
        "Ġsound": 2132,
        "ĠDep": 2133,
        "Ġsomeone": 2134,
        "cially": 2135,
        "ully": 2136,
        "Ġfoc": 2137,
        "Ġobject": 2138,
        "ift": 2139,
        "aper": 2140,
        "Ġplayer": 2141,
        "Ġrather": 2142,
        "Ġservice": 2143,
        "ashing": 2144,
        "ĠDo": 2145,
        "ĠPart": 2146,
        "rug": 2147,
        "mon": 2148,
        "ply": 2149,
        "Ġmor": 2150,
        "Ġnothing": 2151,
        "Ġprovide": 2152,
        "IC": 2153,
        "ung": 2154,
        "Ġparty": 2155,
        "Ġexist": 2156,
        "Ġmag": 2157,
        "70": 2158,
        "Ġrul": 2159,
        "Ġhouse": 2160,
        "Ġbehind": 2161,
        "Ġhowever": 2162,
        "ĠWorld": 2163,
        "Ġsum": 2164,
        "Ġapplic": 2165,
        "Ġ;": 2166,
        "Ġfunction": 2167,
        "gr": 2168,
        "ĠPol": 2169,
        "Ġfront": 2170,
        "200": 2171,
        "Ġseries": 2172,
        "Ġtem": 2173,
        "Ġtyp": 2174,
        "ills": 2175,
        "Ġopt": 2176,
        "Ġpoints": 2177,
        "Ġbelow": 2178,
        "itted": 2179,
        "Ġspecific": 2180,
        "Ġ2017": 2181,
        "umb": 2182,
        "Ġra": 2183,
        "Ġprevious": 2184,
        "Ġpret": 2185,
        "reme": 2186,
        "Ġcustom": 2187,
        "Ġcourt": 2188,
        "ĠMe": 2189,
        "Ġrepl": 2190,
        "Ġwhole": 2191,
        "go": 2192,
        "cer": 2193,
        "Ġtreat": 2194,
        "ĠAct": 2195,
        "Ġprobably": 2196,
        "Ġlearn": 2197,
        "ender": 2198,
        "ĠAss": 2199,
        "Ġversion": 2200,
        "now": 2201,
        "Ġcheck": 2202,
        "ĠCal": 2203,
        "RE": 2204,
        "minist": 2205,
        "On": 2206,
        "ources": 2207,
        "Ġbenef": 2208,
        "Ġdoc": 2209,
        "Ġdeter": 2210,
        "Ġenc": 2211,
        "Ġsuper": 2212,
        "Ġaddress": 2213,
        "Ġvict": 2214,
        "Ġ2013": 2215,
        "Ġmeas": 2216,
        "tr": 2217,
        "Ġfield": 2218,
        "When": 2219,
        "Ġsignific": 2220,
        "uge": 2221,
        "Ġfeat": 2222,
        "Ġcommon": 2223,
        "load": 2224,
        "Ġbegin": 2225,
        "Ġbring": 2226,
        "Ġaction": 2227,
        "erman": 2228,
        "Ġdescrib": 2229,
        "Ġindust": 2230,
        "Ġwanted": 2231,
        "ried": 2232,
        "ming": 2233,
        "Ġattempt": 2234,
        "45": 2235,
        "fer": 2236,
        "Ġdue": 2237,
        "ression": 2238,
        "##": 2239,
        "Ġshall": 2240,
        "Ġsix": 2241,
        "oo": 2242,
        "Ġstep": 2243,
        "Ġpub": 2244,
        "Ġhimself": 2245,
        "Ġ23": 2246,
        "Ġcop": 2247,
        "Ġdest": 2248,
        "Ġstop": 2249,
        "AC": 2250,
        "ibility": 2251,
        "Ġlab": 2252,
        "icult": 2253,
        "Ġhours": 2254,
        "Ġcreate": 2255,
        "Ġfurther": 2256,
        "ĠAmerica": 2257,
        "ĠCity": 2258,
        "Ġdou": 2259,
        "head": 2260,
        "ST": 2261,
        "ĠNorth": 2262,
        "cing": 2263,
        "Ġnational": 2264,
        "ule": 2265,
        "ĠInst": 2266,
        "Ġtaking": 2267,
        "ĠQu": 2268,
        "irt": 2269,
        "Ġred": 2270,
        "Ġresearch": 2271,
        "viron": 2272,
        "ĠGe": 2273,
        "Ġbreak": 2274,
        "ana": 2275,
        "Ġspace": 2276,
        "aterial": 2277,
        "Ġrecent": 2278,
        "ĠAb": 2279,
        "Ġgeneral": 2280,
        "Ġhit": 2281,
        "Ġperiod": 2282,
        "Ġeverything": 2283,
        "ively": 2284,
        "Ġphys": 2285,
        "Ġsaying": 2286,
        "anks": 2287,
        "Ġcou": 2288,
        "Ġcult": 2289,
        "aced": 2290,
        "eal": 2291,
        "uation": 2292,
        "Ġcoun": 2293,
        "lu": 2294,
        "Ġinclude": 2295,
        "Ġposition": 2296,
        "ĠAfter": 2297,
        "ĠCanad": 2298,
        "ĠEm": 2299,
        "Ġimm": 2300,
        "ĠRed": 2301,
        "Ġpick": 2302,
        "Ġcompl": 2303,
        "Ġmatter": 2304,
        "reg": 2305,
        "ext": 2306,
        "angu": 2307,
        "isc": 2308,
        "ole": 2309,
        "aut": 2310,
        "Ġcompet": 2311,
        "eed": 2312,
        "fect": 2313,
        "Ġ21": 2314,
        "ĠSen": 2315,
        "ĠThese": 2316,
        "asing": 2317,
        "Ġcannot": 2318,
        "Ġinit": 2319,
        "Ġrelations": 2320,
        "ached": 2321,
        "Ġbar": 2322,
        "Ġ40": 2323,
        "ĠTH": 2324,
        "Ġ2012": 2325,
        "Ġvol": 2326,
        "Ġground": 2327,
        "Ġsecurity": 2328,
        "Ġupd": 2329,
        "ilt": 2330,
        "35": 2331,
        "Ġconcern": 2332,
        "ĠJust": 2333,
        "Ġwhite": 2334,
        "Ġseems": 2335,
        "ĠHer": 2336,
        "pecially": 2337,
        "ients": 2338,
        "Ġannoun": 2339,
        "Ġfig": 2340,
        "ights": 2341,
        "Ġstri": 2342,
        "like": 2343,
        "ids": 2344,
        "Ġsus": 2345,
        "Ġwatch": 2346,
        "Ġâ": 2347,
        "Ġwind": 2348,
        "ĠCont": 2349,
        "Ġitself": 2350,
        "Ġmass": 2351,
        "Al": 2352,
        "yle": 2353,
        "ique": 2354,
        "ĠNational": 2355,
        "Ġabs": 2356,
        "Ġpack": 2357,
        "Ġoutside": 2358,
        "Ġanim": 2359,
        "Ġpain": 2360,
        "eter": 2361,
        "Ġmanag": 2362,
        "duct": 2363,
        "ogn": 2364,
        "Ġ]": 2365,
        "ĠSept": 2366,
        "sec": 2367,
        "off": 2368,
        "ĠJan": 2369,
        "Ġfoot": 2370,
        "ades": 2371,
        "Ġthird": 2372,
        "Ġmot": 2373,
        "Ġevidence": 2374,
        "inton": 2375,
        "Ġthreat": 2376,
        "apt": 2377,
        "ples": 2378,
        "cle": 2379,
        "Ġlo": 2380,
        "Ġdecl": 2381,
        "Ġitem": 2382,
        "medi": 2383,
        "Ġrepresent": 2384,
        "omb": 2385,
        "amer": 2386,
        "Ġsignificant": 2387,
        "ograph": 2388,
        "su": 2389,
        "Ġcal": 2390,
        "ires": 2391,
        "0000": 2392,
        "ID": 2393,
        "AM": 2394,
        "Ġsimply": 2395,
        "Ġlonger": 2396,
        "Ġfile": 2397,
        "OT": 2398,
        "che": 2399,
        "So": 2400,
        "ateg": 2401,
        "org": 2402,
        "ĠHis": 2403,
        "Ġener": 2404,
        "Ġdom": 2405,
        "Ġupon": 2406,
        "ili": 2407,
        "\":\"": 2408,
        "Ġthemselves": 2409,
        "Ġcoming": 2410,
        "Ġquite": 2411,
        "Ġdifficult": 2412,
        "ĠBar": 2413,
        "ilities": 2414,
        "rel": 2415,
        "ends": 2416,
        "cial": 2417,
        "64": 2418,
        "Ġwoman": 2419,
        "rap": 2420,
        "yr": 2421,
        "Ġnecess": 2422,
        "ips": 2423,
        "Ġtext": 2424,
        "Ġrequire": 2425,
        "Ġmilitary": 2426,
        "Ġreview": 2427,
        "Ġrespons": 2428,
        "75": 2429,
        "Ġsubject": 2430,
        "Ġinstead": 2431,
        "Ġissues": 2432,
        "Ġgen": 2433,
        "\",\"": 2434,
        "Ġminutes": 2435,
        "Ġweap": 2436,
        "ray": 2437,
        "amed": 2438,
        "time": 2439,
        "bl": 2440,
        "How": 2441,
        "Ġcode": 2442,
        "ĠSm": 2443,
        "Ġhigher": 2444,
        "ĠSte": 2445,
        "ris": 2446,
        "Ġpage": 2447,
        "Ġstudents": 2448,
        "ĠIntern": 2449,
        "Ġmethod": 2450,
        "ĠAug": 2451,
        "ĠPer": 2452,
        "ĠAg": 2453,
        "Ġpolicy": 2454,
        "ĠSw": 2455,
        "Ġexec": 2456,
        "Ġaccept": 2457,
        "ume": 2458,
        "ribut": 2459,
        "Ġwords": 2460,
        "Ġfinal": 2461,
        "Ġchanges": 2462,
        "ĠDemocr": 2463,
        "Ġfriends": 2464,
        "Ġrespect": 2465,
        "Ġep": 2466,
        "Ġcompan": 2467,
        "ivil": 2468,
        "Ġdamage": 2469,
        "****": 2470,
        "ogle": 2471,
        "vironment": 2472,
        "Ġneg": 2473,
        "ental": 2474,
        "Ġap": 2475,
        "Ġtotal": 2476,
        "ival": 2477,
        "!\"": 2478,
        "lim": 2479,
        "Ġneeds": 2480,
        "Ġagre": 2481,
        "Ġdevelopment": 2482,
        "Ġage": 2483,
        "iple": 2484,
        "21": 2485,
        "Ġresults": 2486,
        "ĠAf": 2487,
        "Sh": 2488,
        "Ġgun": 2489,
        "ĠObama": 2490,
        "roll": 2491,
        "Ġ@": 2492,
        "Ġrights": 2493,
        "ĠBrit": 2494,
        "Ġrunning": 2495,
        "Ġwasn": 2496,
        "Ġport": 2497,
        "Ġrate": 2498,
        "Ġpretty": 2499,
        "Ġtarget": 2500,
        "Ġsaw": 2501,
        "Ġcirc": 2502,
        "Ġworks": 2503,
        "icro": 2504,
        "alt": 2505,
        "over": 2506,
        "www": 2507,
        "That": 2508,
        "lier": 2509,
        "Ġeveryone": 2510,
        "ude": 2511,
        "Ġpie": 2512,
        "iddle": 2513,
        "rael": 2514,
        "Ġrad": 2515,
        "Ġblock": 2516,
        "Ġwalk": 2517,
        "To": 2518,
        "ãģ": 2519,
        "nes": 2520,
        "ĠAust": 2521,
        "aul": 2522,
        "rote": 2523,
        "ĠSouth": 2524,
        "ession": 2525,
        "oph": 2526,
        "Ġshows": 2527,
        "Ġsite": 2528,
        "Ġjo": 2529,
        "Ġrisk": 2530,
        "clus": 2531,
        "lt": 2532,
        "Ġinj": 2533,
        "iding": 2534,
        "ĠSpe": 2535,
        "Ġchall": 2536,
        "irm": 2537,
        "Ġ22": 2538,
        "itting": 2539,
        "str": 2540,
        "Ġhy": 2541,
        "LE": 2542,
        "key": 2543,
        "Ġbegan": 2544,
        "atur": 2545,
        "ashington": 2546,
        "lam": 2547,
        "ĠDav": 2548,
        "bit": 2549,
        "Ġsize": 2550,
        "ĠPar": 2551,
        "38": 2552,
        "ournal": 2553,
        "face": 2554,
        "Ġdecision": 2555,
        "Ġlarg": 2556,
        "Ġjud": 2557,
        "rect": 2558,
        "Ġcontinue": 2559,
        "ĠOct": 2560,
        "overed": 2561,
        "ĠInt": 2562,
        "========": 2563,
        "Ġparent": 2564,
        "ĠWill": 2565,
        "Ġeasy": 2566,
        "Ġdrug": 2567,
        "anger": 2568,
        "Ġsense": 2569,
        "Ġdi": 2570,
        "iday": 2571,
        "Ġenergy": 2572,
        "istic": 2573,
        "Ġassoci": 2574,
        "arter": 2575,
        "obal": 2576,
        "eks": 2577,
        "ĠEl": 2578,
        "urch": 2579,
        "Ġgirl": 2580,
        "oe": 2581,
        "itle": 2582,
        "Ġ28": 2583,
        "ĠChe": 2584,
        "Ġrequest": 2585,
        "Ġsoon": 2586,
        "Ġhost": 2587,
        "ky": 2588,
        "Ġstates": 2589,
        "omes": 2590,
        "Ġmaterial": 2591,
        "lex": 2592,
        "Ġmoment": 2593,
        "Ġansw": 2594,
        "onse": 2595,
        "Ġespecially": 2596,
        "Ġnorm": 2597,
        "Ġservices": 2598,
        "pite": 2599,
        "ran": 2600,
        "Ġrole": 2601,
        "44": 2602,
        "):": 2603,
        "Ġcred": 2604,
        "Cl": 2605,
        "________": 2606,
        "Ġmat": 2607,
        "Ġlog": 2608,
        "ĠClinton": 2609,
        "OU": 2610,
        "Ġoffice": 2611,
        "Ġ26": 2612,
        "Ġcharg": 2613,
        "Ġtrack": 2614,
        "ma": 2615,
        "Ġheart": 2616,
        "Ġball": 2617,
        "Ġpersonal": 2618,
        "Ġbuilding": 2619,
        "na": 2620,
        "set": 2621,
        "body": 2622,
        "ĠBlack": 2623,
        "Ġincrease": 2624,
        "itten": 2625,
        "Ġneeded": 2626,
        "36": 2627,
        "32": 2628,
        "=\"": 2629,
        "Ġlost": 2630,
        "Ġbecame": 2631,
        "Ġgroups": 2632,
        "ĠMus": 2633,
        "Ġwrote": 2634,
        "ĠPe": 2635,
        "Ġprop": 2636,
        "joy": 2637,
        "Ã©": 2638,
        "ĠWhite": 2639,
        "Ġdead": 2640,
        ".'": 2641,
        "Ġhttp": 2642,
        "Ġwebs": 2643,
        "OS": 2644,
        "Ġinside": 2645,
        "Ġwrong": 2646,
        "Ġstatement": 2647,
        "Ġ...": 2648,
        "yl": 2649,
        "Ġfilm": 2650,
        "Ġmusic": 2651,
        "Ġshare": 2652,
        "ification": 2653,
        "Ġrelease": 2654,
        "Ġforward": 2655,
        "Ġstay": 2656,
        "Ġcomput": 2657,
        "itte": 2658,
        "ser": 2659,
        "Ġoriginal": 2660,
        "Ġcard": 2661,
        "Ġcand": 2662,
        "Ġdiv": 2663,
        "atural": 2664,
        "Ġfavor": 2665,
        "OM": 2666,
        "Ġcases": 2667,
        "uses": 2668,
        "Ġsection": 2669,
        "Ġleave": 2670,
        "ging": 2671,
        "oved": 2672,
        "ĠWashington": 2673,
        "39": 2674,
        "ĠGl": 2675,
        "Ġrequired": 2676,
        "action": 2677,
        "apan": 2678,
        "oor": 2679,
        "iter": 2680,
        "ĠKing": 2681,
        "Ġcountries": 2682,
        "ĠGerman": 2683,
        "lling": 2684,
        "Ġ27": 2685,
        "34": 2686,
        "Ġquestions": 2687,
        "Ġprim": 2688,
        "Ġcell": 2689,
        "Ġshoot": 2690,
        "Ġanyone": 2691,
        "ĠWest": 2692,
        "Ġaffect": 2693,
        "epend": 2694,
        "Ġonline": 2695,
        "ĠIsrael": 2696,
        "ĠSeptember": 2697,
        "Ġability": 2698,
        "Ġcontent": 2699,
        "ises": 2700,
        "Ġreve": 2701,
        "Ġlaun": 2702,
        "Ġindic": 2703,
        "Ġforce": 2704,
        "cast": 2705,
        "Ġsold": 2706,
        "aving": 2707,
        "fl": 2708,
        "Ġsoft": 2709,
        "Ġcompanies": 2710,
        "ceed": 2711,
        "Ġarticle": 2712,
        "Ġaud": 2713,
        "Ġrev": 2714,
        "Ġeduc": 2715,
        "Ġplaying": 2716,
        "05": 2717,
        "Ġheld": 2718,
        "ctor": 2719,
        "Ġreleased": 2720,
        "Ġfederal": 2721,
        "37": 2722,
        "Ġadminist": 2723,
        "Ġinterview": 2724,
        "Ġinstall": 2725,
        "Ġreceived": 2726,
        "Ġsource": 2727,
        "uk": 2728,
        "Ph": 2729,
        "Ġserious": 2730,
        "Ġcreated": 2731,
        "Ġcause": 2732,
        "Ġimmedi": 2733,
        "Ġdefin": 2734,
        "uel": 2735,
        "ĠDepartment": 2736,
        "ctions": 2737,
        "ĠCour": 2738,
        "ĠNow": 2739,
        "ze": 2740,
        "ites": 2741,
        "itution": 2742,
        "Ġlate": 2743,
        "Ġspeak": 2744,
        "ners": 2745,
        "Ġlegal": 2746,
        "ari": 2747,
        "ĠCor": 2748,
        "Ġweeks": 2749,
        "Ġmodel": 2750,
        "Ġpred": 2751,
        "Ġexact": 2752,
        "BC": 2753,
        "ĠBy": 2754,
        "ING": 2755,
        "osing": 2756,
        "Ġtakes": 2757,
        "Ġregard": 2758,
        "Ġopportun": 2759,
        "Ġprice": 2760,
        "Ġ198": 2761,
        "ĠApr": 2762,
        "fully": 2763,
        "Ġord": 2764,
        "Ġproblems": 2765,
        "ruction": 2766,
        "ham": 2767,
        "ĠCount": 2768,
        "lege": 2769,
        "Ġleaders": 2770,
        "ET": 2771,
        "lev": 2772,
        "Ġdeep": 2773,
        "ological": 2774,
        "ese": 2775,
        "haps": 2776,
        "ĠSome": 2777,
        "Ġpers": 2778,
        "Ġcontract": 2779,
        "Ġrelationship": 2780,
        "sp": 2781,
        "oud": 2782,
        "Ġbase": 2783,
        "48": 2784,
        "mit": 2785,
        "Ad": 2786,
        "ancial": 2787,
        "Ġconsum": 2788,
        "Ġpotential": 2789,
        "Ġlangu": 2790,
        "rem": 2791,
        "eth": 2792,
        "Ġrelig": 2793,
        "ressed": 2794,
        "66": 2795,
        "Ġlink": 2796,
        "Ġlower": 2797,
        "ayer": 2798,
        "ĠJune": 2799,
        "Ġfem": 2800,
        "unt": 2801,
        "erc": 2802,
        "urd": 2803,
        "Ġcontact": 2804,
        "Ġill": 2805,
        "Ġmother": 2806,
        "Ġestab": 2807,
        "htt": 2808,
        "ĠMarch": 2809,
        "ĠBro": 2810,
        "ĠChina": 2811,
        "Ġ29": 2812,
        "Ġsqu": 2813,
        "Ġprovided": 2814,
        "Ġaverage": 2815,
        "asons": 2816,
        "Ġ2011": 2817,
        "Ġexam": 2818,
        "lin": 2819,
        "55": 2820,
        "ned": 2821,
        "Ġperfect": 2822,
        "Ġtou": 2823,
        "alse": 2824,
        "ux": 2825,
        "Ġbuy": 2826,
        "Ġshot": 2827,
        "Ġcollect": 2828,
        "Ġphot": 2829,
        "Ġplayed": 2830,
        "Ġsurpr": 2831,
        "Ġofficials": 2832,
        "Ġsimple": 2833,
        "avy": 2834,
        "Ġindustry": 2835,
        "Ġhands": 2836,
        "ground": 2837,
        "Ġpull": 2838,
        "Ġround": 2839,
        "Ġuser": 2840,
        "Ġrange": 2841,
        "uary": 2842,
        "Ġprivate": 2843,
        "ops": 2844,
        "ees": 2845,
        "Ġways": 2846,
        "ĠMich": 2847,
        "Ġveh": 2848,
        "Ġexcept": 2849,
        "Ġterms": 2850,
        "imum": 2851,
        "pper": 2852,
        "ION": 2853,
        "ores": 2854,
        "ĠDragon": 2855,
        "oul": 2856,
        "Ġden": 2857,
        "Ġperformance": 2858,
        "Ġbill": 2859,
        "cil": 2860,
        "47": 2861,
        "Ġenvironment": 2862,
        "Ġexc": 2863,
        "add": 2864,
        "Ġworth": 2865,
        "Ġpict": 2866,
        "Ġchance": 2867,
        "Ġ2018": 2868,
        "bor": 2869,
        "Ġspeed": 2870,
        "iction": 2871,
        "Ġalleg": 2872,
        "ĠJapan": 2873,
        "atory": 2874,
        "reet": 2875,
        "Ġmatch": 2876,
        "ĠII": 2877,
        "Ġstru": 2878,
        "order": 2879,
        "Ġste": 2880,
        "Ġliving": 2881,
        "Ġstruct": 2882,
        "ino": 2883,
        "Ġsepar": 2884,
        "hern": 2885,
        "Ġresponse": 2886,
        "Ġenjoy": 2887,
        "Ġvia": 2888,
        "AD": 2889,
        "uments": 2890,
        "acebook": 2891,
        "Ġmember": 2892,
        "ibr": 2893,
        "izing": 2894,
        "Ġtool": 2895,
        "ĠMon": 2896,
        "ĠWhile": 2897,
        "hood": 2898,
        "ĠAng": 2899,
        "ĠDef": 2900,
        "Ġoffer": 2901,
        "Tr": 2902,
        "aur": 2903,
        "Ġturned": 2904,
        "ĠJuly": 2905,
        "down": 2906,
        "anced": 2907,
        "Ġrecently": 2908,
        "ĠEar": 2909,
        "Ġce": 2910,
        "ĠStar": 2911,
        "ĠCong": 2912,
        "rought": 2913,
        "Ġblood": 2914,
        "Ġhope": 2915,
        "Ġcomment": 2916,
        "aint": 2917,
        "Ġarri": 2918,
        "iles": 2919,
        "Ġparticip": 2920,
        "ought": 2921,
        "ription": 2922,
        "08": 2923,
        "49": 2924,
        "Ġgave": 2925,
        "Ġselect": 2926,
        "Ġkilled": 2927,
        "sych": 2928,
        "Ġgoes": 2929,
        "ij": 2930,
        "Ġcoll": 2931,
        "Ġimpact": 2932,
        "atives": 2933,
        "ĠSer": 2934,
        "09": 2935,
        "ĠAugust": 2936,
        "Ġboy": 2937,
        "de": 2938,
        "ĠDes": 2939,
        "Ġfelt": 2940,
        "US": 2941,
        "Ġexpected": 2942,
        "Ġimage": 2943,
        "ĠMark": 2944,
        "ccording": 2945,
        "oice": 2946,
        "EC": 2947,
        "ĠMag": 2948,
        "ened": 2949,
        "hold": 2950,
        "ĠPost": 2951,
        "Ġprevent": 2952,
        "No": 2953,
        "Ġinvolved": 2954,
        "Ġeyes": 2955,
        "Ġquickly": 2956,
        "At": 2957,
        "unk": 2958,
        "Ġbehav": 2959,
        "Ġur": 2960,
        "Ġled": 2961,
        "come": 2962,
        "ey": 2963,
        "Ġcandid": 2964,
        "Ġearlier": 2965,
        "Ġfocus": 2966,
        "ety": 2967,
        "Pro": 2968,
        "ledge": 2969,
        "ixed": 2970,
        "illed": 2971,
        "Ġpopular": 2972,
        "AP": 2973,
        "Ġsett": 2974,
        "light": 2975,
        "Ġvarious": 2976,
        "inks": 2977,
        "Ġlevels": 2978,
        "Ġroad": 2979,
        "ellig": 2980,
        "ables": 2981,
        "hel": 2982,
        "ittee": 2983,
        "ĠGener": 2984,
        "ype": 2985,
        "Ġheard": 2986,
        "icles": 2987,
        "Ġmis": 2988,
        "Ġusers": 2989,
        "ĠSan": 2990,
        "Ġimprove": 2991,
        "Ġfather": 2992,
        "Ġsearch": 2993,
        "They": 2994,
        "vil": 2995,
        "Ġprofess": 2996,
        "Ġknew": 2997,
        "Ġloss": 2998,
        "Ġevents": 2999,
        "65": 3000,
        "Ġbillion": 3001,
        "07": 3002,
        "02": 3003,
        "ĠNews": 3004,
        "ĠAM": 3005,
        "Ġcover": 3006,
        "where": 3007,
        "ension": 3008,
        "Ġbott": 3009,
        "Ġareas": 3010,
        "ences": 3011,
        "ope": 3012,
        "ĠTwitter": 3013,
        "ael": 3014,
        "Ġgets": 3015,
        "ĠGoogle": 3016,
        "Ġsn": 3017,
        "iant": 3018,
        "Ġvote": 3019,
        "Ġnearly": 3020,
        "Ġincluded": 3021,
        "Ġrecogn": 3022,
        "zz": 3023,
        "mm": 3024,
        "aled": 3025,
        "Ġhappened": 3026,
        "04": 3027,
        "Ġhot": 3028,
        "Ġwhose": 3029,
        "Ġcivil": 3030,
        "Ġsuff": 3031,
        "oes": 3032,
        "itiz": 3033,
        "ĠSyri": 3034,
        "Ġrespond": 3035,
        "Ġhon": 3036,
        "Ġfeatures": 3037,
        "Ġeconomic": 3038,
        "ĠApril": 3039,
        "rim": 3040,
        "Ġtechnology": 3041,
        "Ġoption": 3042,
        "aging": 3043,
        "Ġpurch": 3044,
        "Re": 3045,
        "Ġlat": 3046,
        "chie": 3047,
        "isl": 3048,
        "Ġrecomm": 3049,
        "uf": 3050,
        "Ġtraining": 3051,
        "Ġeffects": 3052,
        "Ġfast": 3053,
        "Ġ2010": 3054,
        "Ġoccur": 3055,
        "Ġwebsite": 3056,
        "Ġemail": 3057,
        "Ġsens": 3058,
        "ech": 3059,
        "Ġoil": 3060,
        "Ġinflu": 3061,
        "Ġcurrently": 3062,
        "ĠSch": 3063,
        "ĠAdd": 3064,
        "Ġgoal": 3065,
        "Ġscient": 3066,
        "Ġconv": 3067,
        "100": 3068,
        "emy": 3069,
        "Ġdecided": 3070,
        "Ġtravel": 3071,
        "Ġmention": 3072,
        "LL": 3073,
        "03": 3074,
        "Ġelection": 3075,
        "Ġphone": 3076,
        "Ġlooks": 3077,
        "Ġsituation": 3078,
        "Ġcy": 3079,
        "Ġhor": 3080,
        "bed": 3081,
        "ĠCourt": 3082,
        "aily": 3083,
        "aves": 3084,
        "Ġquality": 3085,
        "ĠComp": 3086,
        "wise": 3087,
        "Ġtable": 3088,
        "Ġstaff": 3089,
        "ĠWind": 3090,
        "ett": 3091,
        "Ġtried": 3092,
        "idered": 3093,
        "Ġaddition": 3094,
        "Ġbox": 3095,
        "Ġlack": 3096,
        "arily": 3097,
        "Ġwide": 3098,
        "Ġmid": 3099,
        "Ġboard": 3100,
        "ysis": 3101,
        "Ġanti": 3102,
        "ha": 3103,
        "Ġdig": 3104,
        "ening": 3105,
        "Ġdro": 3106,
        "Con": 3107,
        "68": 3108,
        "Ġslow": 3109,
        "based": 3110,
        "sequ": 3111,
        "Ġpath": 3112,
        "Ex": 3113,
        "aker": 3114,
        "Ġworked": 3115,
        "Ġpen": 3116,
        "Ġengine": 3117,
        "Ġlooked": 3118,
        "ĠSuper": 3119,
        "ĠServ": 3120,
        "Ġvictim": 3121,
        "Un": 3122,
        "Ġproperty": 3123,
        "Ġintrodu": 3124,
        "Ġexecut": 3125,
        "ĠPM": 3126,
        "Le": 3127,
        "Ġcolor": 3128,
        "ĠMore": 3129,
        "Ġ60": 3130,
        "Ġnetwork": 3131,
        "Ġdate": 3132,
        "cul": 3133,
        "idge": 3134,
        "Ġextra": 3135,
        "31": 3136,
        "Ġsle": 3137,
        "67": 3138,
        "Ġwond": 3139,
        "Ġreports": 3140,
        "just": 3141,
        "ĠAustral": 3142,
        "Ġcapital": 3143,
        "Ġens": 3144,
        "Ġcommand": 3145,
        "Ġallowed": 3146,
        "Ġprep": 3147,
        "Ġcapt": 3148,
        "hib": 3149,
        "Ġnumbers": 3150,
        "chan": 3151,
        "Ġfair": 3152,
        "mp": 3153,
        "oms": 3154,
        "Ġreach": 3155,
        "With": 3156,
        "tain": 3157,
        "Ġbroad": 3158,
        "Ġcouple": 3159,
        "ecause": 3160,
        "lying": 3161,
        "ĠFeb": 3162,
        "Ġscreen": 3163,
        "Ġlives": 3164,
        "Ġprior": 3165,
        "ĠCongress": 3166,
        "Ar": 3167,
        "Ġapproach": 3168,
        "Ġemer": 3169,
        "aries": 3170,
        "ĠDis": 3171,
        "serv": 3172,
        "ĠNe": 3173,
        "Ġbuilt": 3174,
        "cies": 3175,
        "Ġrepe": 3176,
        "Ġrules": 3177,
        "force": 3178,
        "ĠPal": 3179,
        "Ġfinancial": 3180,
        "Ġconsidered": 3181,
        "ĠChar": 3182,
        "nces": 3183,
        "ĠIS": 3184,
        "Ġbrought": 3185,
        "Ġbi": 3186,
        "iers": 3187,
        "ĠSim": 3188,
        "OP": 3189,
        "Ġproducts": 3190,
        "Ġvisit": 3191,
        "Ġdocument": 3192,
        "Ġconduct": 3193,
        "Ġcompletely": 3194,
        "ining": 3195,
        "ĠCalif": 3196,
        "ibly": 3197,
        "Ġwritten": 3198,
        "ĠTV": 3199,
        "ements": 3200,
        "Ġdraw": 3201,
        "One": 3202,
        "Ġpublished": 3203,
        "Ġsecret": 3204,
        "rain": 3205,
        "het": 3206,
        "ĠFacebook": 3207,
        "onday": 3208,
        "ĠUp": 3209,
        "Ġsexual": 3210,
        "Ġthous": 3211,
        "ĠPat": 3212,
        "Ġess": 3213,
        "Ġstandard": 3214,
        "Ġarm": 3215,
        "ges": 3216,
        "ection": 3217,
        "Ġfell": 3218,
        "Ġforeign": 3219,
        "ani": 3220,
        "ĠFriday": 3221,
        "Ġregular": 3222,
        "inary": 3223,
        "Ġincreased": 3224,
        "Ġusually": 3225,
        "Ġdemon": 3226,
        "Ġdark": 3227,
        "Ġadditional": 3228,
        "rol": 3229,
        "ĠOf": 3230,
        "Ġproduction": 3231,
        "!!": 3232,
        "undred": 3233,
        "Ġinternational": 3234,
        "idents": 3235,
        "ĠFree": 3236,
        "roup": 3237,
        "Ġrace": 3238,
        "Ġmach": 3239,
        "Ġhuge": 3240,
        "All": 3241,
        "lear": 3242,
        "ovember": 3243,
        "Ġtown": 3244,
        "Ġattention": 3245,
        "ĠOff": 3246,
        "yond": 3247,
        "ĠThen": 3248,
        "field": 3249,
        "Ġterror": 3250,
        "raz": 3251,
        "ĠBo": 3252,
        "Ġmeeting": 3253,
        "ĠPark": 3254,
        "Ġarrest": 3255,
        "Ġfear": 3256,
        "Ġaw": 3257,
        "ĠVal": 3258,
        "oring": 3259,
        "',": 3260,
        "Ġextreme": 3261,
        "arr": 3262,
        "Ġworkers": 3263,
        "After": 3264,
        "Ġ31": 3265,
        "net": 3266,
        "ament": 3267,
        "Ġdirectly": 3268,
        "Ġpopulation": 3269,
        "ube": 3270,
        "ĠOctober": 3271,
        "ĠIN": 3272,
        "ĠJanuary": 3273,
        "59": 3274,
        "ĠDavid": 3275,
        "Ġcross": 3276,
        "cember": 3277,
        "ĠFirst": 3278,
        "Ġmessage": 3279,
        "irit": 3280,
        "Ġnation": 3281,
        "Ġpoll": 3282,
        "isions": 3283,
        "Ġanswer": 3284,
        "ny": 3285,
        "isode": 3286,
        "Ġcarry": 3287,
        "ĠRussia": 3288,
        "Ġhear": 3289,
        "ength": 3290,
        "roy": 3291,
        "Ġnatural": 3292,
        "inally": 3293,
        "Ġdog": 3294,
        "mitted": 3295,
        "Ġtrade": 3296,
        "Ġsubst": 3297,
        "Ġmultiple": 3298,
        "ĠAfric": 3299,
        "Ġfans": 3300,
        "Ġsort": 3301,
        "Ġglobal": 3302,
        "ication": 3303,
        "ĠWed": 3304,
        "ara": 3305,
        "Ġachie": 3306,
        "Ġlanguage": 3307,
        "vey": 3308,
        "Ġtal": 3309,
        "Ġnecessary": 3310,
        "Ġdetails": 3311,
        "Ġsen": 3312,
        "ĠSund": 3313,
        "ĠReg": 3314,
        "ĠRec": 3315,
        "06": 3316,
        "Ġsil": 3317,
        "ressive": 3318,
        "Ġmedical": 3319,
        "unch": 3320,
        "ornia": 3321,
        "Ġund": 3322,
        "fort": 3323,
        "ocks": 3324,
        "ĠMonday": 3325,
        "uesday": 3326,
        "craft": 3327,
        "77": 3328,
        "urt": 3329,
        "Ġver": 3330,
        "ĠHill": 3331,
        "Ġreceive": 3332,
        "Ġmorning": 3333,
        "estern": 3334,
        "Ġbank": 3335,
        "Ġsat": 3336,
        "irth": 3337,
        "ĠHigh": 3338,
        "Ġdevice": 3339,
        "ĠTHE": 3340,
        "ĠCenter": 3341,
        "Ġsafe": 3342,
        "Ġple": 3343,
        "ĠCanada": 3344,
        "Ġsystems": 3345,
        "Ġassist": 3346,
        "Ġsurv": 3347,
        "Ġbattle": 3348,
        "ĠSoc": 3349,
        "vertis": 3350,
        "She": 3351,
        "Ġpaper": 3352,
        "Ġgrowth": 3353,
        "Ġcast": 3354,
        "Sc": 3355,
        "Ġplans": 3356,
        "lled": 3357,
        "Ġparts": 3358,
        "Ġwall": 3359,
        "Ġmovement": 3360,
        "Ġpractice": 3361,
        "imately": 3362,
        "Ġdisplay": 3363,
        "Ġsometimes": 3364,
        "omp": 3365,
        "ĠPaul": 3366,
        "ĠYes": 3367,
        "king": 3368,
        "58": 3369,
        "oly": 3370,
        "Ġson": 3371,
        "Ġavoid": 3372,
        "okes": 3373,
        "ĠJew": 3374,
        "Ġtowards": 3375,
        "asc": 3376,
        "Ġ//": 3377,
        "ĠKore": 3378,
        "Ġtalking": 3379,
        "Ġcorrect": 3380,
        "Ġspent": 3381,
        "icks": 3382,
        "iable": 3383,
        "eared": 3384,
        "Ġterm": 3385,
        "Ġwants": 3386,
        "oming": 3387,
        "Ġut": 3388,
        "Ġdoub": 3389,
        "Ġforces": 3390,
        "Ġplease": 3391,
        "69": 3392,
        "ĠNovember": 3393,
        "atform": 3394,
        "ondon": 3395,
        "Ġones": 3396,
        "Ġimmediately": 3397,
        "ĠRussian": 3398,
        "ĠMet": 3399,
        "Ġdeg": 3400,
        "Ġparents": 3401,
        "CH": 3402,
        "ĠAmericans": 3403,
        "aly": 3404,
        "ĠMod": 3405,
        "Ġshown": 3406,
        "Ġconditions": 3407,
        "Ġstuff": 3408,
        "Ġreb": 3409,
        "ĠYour": 3410,
        "Ġincludes": 3411,
        "nown": 3412,
        "ĠSam": 3413,
        "Ġexperien": 3414,
        "mission": 3415,
        "ĠEven": 3416,
        "aught": 3417,
        "Ġannounced": 3418,
        "ĠRepublican": 3419,
        "Ġdetermin": 3420,
        "Ġdescribed": 3421,
        "ĠCounty": 3422,
        "()": 3423,
        "Ġdoor": 3424,
        "Ġchanged": 3425,
        "Ġneigh": 3426,
        "ĠHere": 3427,
        "Ġclean": 3428,
        "Ġpan": 3429,
        "ĠDecember": 3430,
        "ĠEuropean": 3431,
        "iring": 3432,
        "apter": 3433,
        "Ġclub": 3434,
        "ĠTuesday": 3435,
        "Ġpaid": 3436,
        "ĠNet": 3437,
        "Ġattacks": 3438,
        "Ġcharacters": 3439,
        "Ġalone": 3440,
        "Ġdirector": 3441,
        "dom": 3442,
        "Ġ35": 3443,
        "Ġload": 3444,
        "Ġrout": 3445,
        "ĠCalifornia": 3446,
        "Ġfinally": 3447,
        "Ġrac": 3448,
        "Ġcontr": 3449,
        "Ġexactly": 3450,
        "resh": 3451,
        "pri": 3452,
        "ĠIslam": 3453,
        "Ġnature": 3454,
        "Ġcareer": 3455,
        "Ġlatest": 3456,
        "Ġconvers": 3457,
        "ĠSl": 3458,
        "pose": 3459,
        "cient": 3460,
        "ĠInc": 3461,
        "ivity": 3462,
        "88": 3463,
        "ĠAtt": 3464,
        "ĠMor": 3465,
        "nesday": 3466,
        "Ġweight": 3467,
        "ken": 3468,
        "Ġnote": 3469,
        "Ġteams": 3470,
        "Ġ\\": 3471,
        "airs": 3472,
        "ĠGreen": 3473,
        "Ġhundred": 3474,
        "onent": 3475,
        "Ġstreng": 3476,
        "Ġconsist": 3477,
        "icated": 3478,
        "Ġregul": 3479,
        "Ġlic": 3480,
        "astic": 3481,
        "Ġten": 3482,
        "ursday": 3483,
        "elligence": 3484,
        "ously": 3485,
        "ĠUK": 3486,
        "BI": 3487,
        "Ġcosts": 3488,
        "Ġindepend": 3489,
        "ĠAP": 3490,
        "Ġnormal": 3491,
        "Ġhom": 3492,
        "Ġobvious": 3493,
        "Ġswe": 3494,
        "Ġstar": 3495,
        "Ġready": 3496,
        "acher": 3497,
        "Ġimplement": 3498,
        "gest": 3499,
        "Ġsong": 3500,
        "ĠGet": 3501,
        "ĠLab": 3502,
        "Ġinteresting": 3503,
        "using": 3504,
        "Ġgiving": 3505,
        "ĠSunday": 3506,
        "Ġetc": 3507,
        "Ġmiddle": 3508,
        "Ġremember": 3509,
        "right": 3510,
        "osition": 3511,
        "utions": 3512,
        "Ġmax": 3513,
        "46": 3514,
        "Ġyourself": 3515,
        "Ġdemand": 3516,
        "Ġtreatment": 3517,
        "Ġdanger": 3518,
        "ĠCons": 3519,
        "Ġguy": 3520,
        "ĠBritish": 3521,
        "Ġphysical": 3522,
        "Ġrelated": 3523,
        "Ġremain": 3524,
        "Ġcouldn": 3525,
        "Ġrefer": 3526,
        "Ġcitiz": 3527,
        "box": 3528,
        "ENT": 3529,
        "board": 3530,
        "Ġinn": 3531,
        "IG": 3532,
        "ero": 3533,
        "ĠStreet": 3534,
        "ospital": 3535,
        "rench": 3536,
        "chers": 3537,
        "Ġstra": 3538,
        "OL": 3539,
        "ager": 3540,
        "ĠAN": 3541,
        "Ġeasily": 3542,
        "IA": 3543,
        "enge": 3544,
        "iny": 3545,
        "Ġclos": 3546,
        "ocked": 3547,
        "Ġuses": 3548,
        "ĠCoun": 3549,
        "Im": 3550,
        "uild": 3551,
        "??": 3552,
        "more": 3553,
        "Ġang": 3554,
        "Ġwrite": 3555,
        "olute": 3556,
        "57": 3557,
        "Ġleader": 3558,
        "Ġreading": 3559,
        "</": 3560,
        "Ġautom": 3561,
        "ests": 3562,
        "43": 3563,
        "Ġlegisl": 3564,
        "ĠGold": 3565,
        "Ġdesigned": 3566,
        "ĠST": 3567,
        "ĠLeg": 3568,
        "ares": 3569,
        "Ġbeaut": 3570,
        "ĠTex": 3571,
        "Ġappears": 3572,
        "Ġstrugg": 3573,
        "ĠRom": 3574,
        "Ġ00": 3575,
        "Ġchoice": 3576,
        "Ġparticularly": 3577,
        "ĠFrom": 3578,
        "oper": 3579,
        "ĠLondon": 3580,
        "anned": 3581,
        "Ġallows": 3582,
        "obile": 3583,
        "Ġdifference": 3584,
        "âĢ¢": 3585,
        "ĠView": 3586,
        "ĠWednesday": 3587,
        "Ġalthough": 3588,
        "Ġrelative": 3589,
        "Ġapplication": 3590,
        "atever": 3591,
        "Ġaren": 3592,
        "Ġmyself": 3593,
        "Ġimag": 3594,
        "Ġdise": 3595,
        "Ġsociety": 3596,
        "Ġfrequ": 3597,
        "ĠEnglish": 3598,
        "Ġpoor": 3599,
        "ĠDay": 3600,
        "Ġwriting": 3601,
        "Ġseven": 3602,
        "Ġstarting": 3603,
        "Ġbud": 3604,
        "Ġprint": 3605,
        "ĠTrans": 3606,
        "ufact": 3607,
        "ĠStud": 3608,
        "new": 3609,
        "Ġcrim": 3610,
        "Ġgives": 3611,
        "Ġcool": 3612,
        "ae": 3613,
        "iance": 3614,
        "ĠGeneral": 3615,
        "Ġthinking": 3616,
        "Ġsave": 3617,
        "Ġlimited": 3618,
        "ĠParty": 3619,
        "Ġmeaning": 3620,
        "pen": 3621,
        "owers": 3622,
        "ĠJack": 3623,
        "EM": 3624,
        "Ġnice": 3625,
        "rupt": 3626,
        "Ġgas": 3627,
        "Ġeight": 3628,
        "Ġfeet": 3629,
        "Ġeffort": 3630,
        "Ġign": 3631,
        "icit": 3632,
        "Bl": 3633,
        "coin": 3634,
        "Ġopin": 3635,
        "Ġbrain": 3636,
        "While": 3637,
        "hest": 3638,
        "ĠThursday": 3639,
        "Ġwouldn": 3640,
        "aughter": 3641,
        "Ġtouch": 3642,
        "lements": 3643,
        "Ġstudies": 3644,
        "Ġcenter": 3645,
        "cont": 3646,
        "orge": 3647,
        "Ġcomputer": 3648,
        "Ġinvestigation": 3649,
        "Pl": 3650,
        "orks": 3651,
        "Ġ2008": 3652,
        "Ġincreasing": 3653,
        "Ġstore": 3654,
        "Ġcomments": 3655,
        "Ġbal": 3656,
        "men": 3657,
        "Ġdoll": 3658,
        "Ġliber": 3659,
        "Ġwife": 3660,
        "Ġlaws": 3661,
        "aturday": 3662,
        "itness": 3663,
        "Ġmodern": 3664,
        "ĠSk": 3665,
        "Ġadministration": 3666,
        "Ġopportunity": 3667,
        "Ġsal": 3668,
        "Ġpowerful": 3669,
        "My": 3670,
        "Ġclaims": 3671,
        "ĠEarth": 3672,
        "ords": 3673,
        "Ġtitle": 3674,
        "Ġesc": 3675,
        "name": 3676,
        "Not": 3677,
        "omen": 3678,
        "Ġbeyond": 3679,
        "Ġcamer": 3680,
        "Ġsell": 3681,
        "itute": 3682,
        "earch": 3683,
        "Ġappl": 3684,
        "iment": 3685,
        "42": 3686,
        "ĠArt": 3687,
        "Ġunf": 3688,
        "Ġviolence": 3689,
        "urg": 3690,
        "ĠEast": 3691,
        "Ġcompared": 3692,
        "Ġoptions": 3693,
        "Ġthroughout": 3694,
        "Ġvs": 3695,
        "igr": 3696,
        ".[": 3697,
        "aches": 3698,
        "78": 3699,
        "Ġfiles": 3700,
        "FL": 3701,
        "EL": 3702,
        "arian": 3703,
        "ĠJames": 3704,
        "ĠAir": 3705,
        "anch": 3706,
        "Ġdetail": 3707,
        "Ġpiece": 3708,
        "PS": 3709,
        "Ġnamed": 3710,
        "Ġeducation": 3711,
        "Ġdrive": 3712,
        "Ġitems": 3713,
        "Ġstudent": 3714,
        "iced": 3715,
        "::": 3716,
        "ico": 3717,
        "Ġthrow": 3718,
        "Ġscene": 3719,
        "Ġcomplex": 3720,
        "Ġ2009": 3721,
        "Ġprec": 3722,
        "ĠBre": 3723,
        "79": 3724,
        "Ġconcept": 3725,
        "Ġstatus": 3726,
        "aming": 3727,
        "Ġdied": 3728,
        "Ġknowledge": 3729,
        "Ġbeginning": 3730,
        "OD": 3731,
        "ruary": 3732,
        "Ġcertainly": 3733,
        "Ġguys": 3734,
        "Ġslight": 3735,
        "inn": 3736,
        "ounds": 3737,
        "Ġfine": 3738,
        "Ġfat": 3739,
        "ications": 3740,
        "Ġperhaps": 3741,
        "ĠAnt": 3742,
        "Ġincome": 3743,
        "Ġhttps": 3744,
        "Ġmajority": 3745,
        "ports": 3746,
        "ston": 3747,
        "Ġgreater": 3748,
        "Ġfeed": 3749,
        "entially": 3750,
        "Ġsafety": 3751,
        "Ġunique": 3752,
        "andom": 3753,
        "Ġgone": 3754,
        "Ġshowed": 3755,
        "Ġhistor": 3756,
        "Ġcounter": 3757,
        "ius": 3758,
        "ida": 3759,
        "Ġleading": 3760,
        "ipe": 3761,
        "Ġsend": 3762,
        "ĠDonald": 3763,
        "erve": 3764,
        "Ġdefense": 3765,
        "inese": 3766,
        "Ġyes": 3767,
        "ĠFire": 3768,
        "ĠMuslim": 3769,
        "raq": 3770,
        "Ġcontinued": 3771,
        "osh": 3772,
        "Ġprovides": 3773,
        "Ġprison": 3774,
        "ĠPre": 3775,
        "Ġhappy": 3776,
        "Ġeconomy": 3777,
        "Ġtrust": 3778,
        "ags": 3779,
        "ĠGame": 3780,
        "Ġweapons": 3781,
        "uman": 3782,
        "ĠCle": 3783,
        "itation": 3784,
        "Ġanalysis": 3785,
        "ĠTimes": 3786,
        "Ġscience": 3787,
        "->": 3788,
        "Ġfigure": 3789,
        "Ġdisapp": 3790,
        "enty": 3791,
        "Ġsoftware": 3792,
        "Ġult": 3793,
        "Ġofficers": 3794,
        "New": 3795,
        "Is": 3796,
        "Ġremains": 3797,
        "ĠIndia": 3798,
        "Ġpsych": 3799,
        "rief": 3800,
        "Ġcat": 3801,
        "esc": 3802,
        "Ġobserv": 3803,
        "Ġstage": 3804,
        "ĠDark": 3805,
        "Ġenter": 3806,
        "change": 3807,
        "Ġpassed": 3808,
        "Ġdespite": 3809,
        "ĠOut": 3810,
        "Ġmovie": 3811,
        "rs": 3812,
        "Ġvoice": 3813,
        "mine": 3814,
        "ĠPlay": 3815,
        "Ġtoward": 3816,
        "ĠTer": 3817,
        "Ġregion": 3818,
        "Ġvalues": 3819,
        "orters": 3820,
        "Ġmount": 3821,
        "Ġofficer": 3822,
        "ĠOther": 3823,
        "ban": 3824,
        "Ġhous": 3825,
        "wood": 3826,
        "room": 3827,
        "IV": 3828,
        "ĠSun": 3829,
        "see": 3830,
        "ĠOver": 3831,
        "rog": 3832,
        "90": 3833,
        "Ġlay": 3834,
        "ĠTur": 3835,
        "awn": 3836,
        "Ġpressure": 3837,
        "ĠSub": 3838,
        "Ġbooks": 3839,
        "edom": 3840,
        "ĠSand": 3841,
        "AA": 3842,
        "ago": 3843,
        "Ġreasons": 3844,
        "ford": 3845,
        "Ġactivity": 3846,
        "UT": 3847,
        "Now": 3848,
        "ĠSenate": 3849,
        "cell": 3850,
        "night": 3851,
        "Ġcalls": 3852,
        "inter": 3853,
        "Ġletter": 3854,
        "ĠRob": 3855,
        "ĠJe": 3856,
        "Ġchoose": 3857,
        "ĠLaw": 3858,
        "Get": 3859,
        "Be": 3860,
        "Ġrob": 3861,
        "Ġtypes": 3862,
        "Ġplatform": 3863,
        "Ġquarter": 3864,
        "RA": 3865,
        "ĠTime": 3866,
        "Ġmaybe": 3867,
        "ĠCr": 3868,
        "95": 3869,
        "pre": 3870,
        "Ġmoving": 3871,
        "Ġlif": 3872,
        "Ġgold": 3873,
        "Ġsom": 3874,
        "Ġpatients": 3875,
        "Ġtruth": 3876,
        "ĠKe": 3877,
        "urance": 3878,
        "antly": 3879,
        "mar": 3880,
        "Ġcharge": 3881,
        "ĠGreat": 3882,
        "Ġcele": 3883,
        "--------------------------------": 3884,
        "Ġrock": 3885,
        "roid": 3886,
        "ancy": 3887,
        "Ġcredit": 3888,
        "aud": 3889,
        "By": 3890,
        "ĠEvery": 3891,
        "Ġmoved": 3892,
        "inger": 3893,
        "ribution": 3894,
        "Ġnames": 3895,
        "Ġstraight": 3896,
        "ĠHealth": 3897,
        "ĠWell": 3898,
        "Ġfeature": 3899,
        "Ġrule": 3900,
        "Ġsche": 3901,
        "inated": 3902,
        "ĠMichael": 3903,
        "berg": 3904,
        "41": 3905,
        "iled": 3906,
        "band": 3907,
        "Ġclick": 3908,
        "ĠAngel": 3909,
        "onents": 3910,
        "ÂŃ": 3911,
        "ĠIraq": 3912,
        "ĠSaturday": 3913,
        "Ġaware": 3914,
        "part": 3915,
        "Ġpattern": 3916,
        "OW": 3917,
        "ĠLet": 3918,
        "Ġgrad": 3919,
        "igned": 3920,
        "Ġassociated": 3921,
        "Ġstyle": 3922,
        "no": 3923,
        "iation": 3924,
        "aith": 3925,
        "ilies": 3926,
        "Ġstories": 3927,
        "uration": 3928,
        "Ġindividuals": 3929,
        "ĠâĢ¦": 3930,
        "miss": 3931,
        "ĠAssoci": 3932,
        "ishing": 3933,
        "aby": 3934,
        "Ġsummer": 3935,
        "ĠBen": 3936,
        "Ġ32": 3937,
        "Ġarch": 3938,
        "uty": 3939,
        "ĠTexas": 3940,
        "hol": 3941,
        "Ġfully": 3942,
        "Ġmill": 3943,
        "Ġfollowed": 3944,
        "ĠBill": 3945,
        "ĠIndian": 3946,
        "ĠSecret": 3947,
        "ĠBel": 3948,
        "ĠFebruary": 3949,
        "Ġjobs": 3950,
        "Ġseemed": 3951,
        "ĠGovern": 3952,
        "ipped": 3953,
        "Ġreality": 3954,
        "Ġlines": 3955,
        "Ġpark": 3956,
        "Ġmeasure": 3957,
        "ĠOur": 3958,
        "IM": 3959,
        "Ġbrother": 3960,
        "Ġgrowing": 3961,
        "Ġban": 3962,
        "Ġestim": 3963,
        "Ġcry": 3964,
        "ĠSchool": 3965,
        "Ġmechan": 3966,
        "ĠOF": 3967,
        "ĠWindows": 3968,
        "Ġrates": 3969,
        "ĠOh": 3970,
        "Ġpositive": 3971,
        "Ġculture": 3972,
        "istics": 3973,
        "ica": 3974,
        "Ġhar": 3975,
        "ya": 3976,
        "itely": 3977,
        "ipp": 3978,
        "Ġmap": 3979,
        "encies": 3980,
        "ĠWilliam": 3981,
        "II": 3982,
        "akers": 3983,
        "56": 3984,
        "ĠMart": 3985,
        "ĠRem": 3986,
        "Ġaltern": 3987,
        "itude": 3988,
        "Ġcoach": 3989,
        "rowd": 3990,
        "Don": 3991,
        "Ġkids": 3992,
        "Ġjournal": 3993,
        "Ġcorpor": 3994,
        "Ġfalse": 3995,
        "Ġweb": 3996,
        "Ġsleep": 3997,
        "Ġcontain": 3998,
        "Ġsto": 3999,
        "Ġbed": 4000,
        "iverse": 4001,
        "ĠRich": 4002,
        "ĠChinese": 4003,
        "Ġpun": 4004,
        "Ġmeant": 4005,
        "known": 4006,
        "Ġnotice": 4007,
        "Ġfavorite": 4008,
        "aven": 4009,
        "Ġcondition": 4010,
        "Ġpurpose": 4011,
        "))": 4012,
        "Ġorganization": 4013,
        "Ġchalleng": 4014,
        "Ġmanufact": 4015,
        "Ġsusp": 4016,
        "ĠAc": 4017,
        "Ġcritic": 4018,
        "unes": 4019,
        "uclear": 4020,
        "Ġmer": 4021,
        "vention": 4022,
        "Ġ80": 4023,
        "Ġmist": 4024,
        "ĠUs": 4025,
        "ĠTor": 4026,
        "http": 4027,
        "olf": 4028,
        "Ġlarger": 4029,
        "Ġadvant": 4030,
        "Ġresear": 4031,
        "Ġactions": 4032,
        "ml": 4033,
        "Ġkept": 4034,
        "Ġaim": 4035,
        ",'": 4036,
        "col": 4037,
        "Ġbenefits": 4038,
        "ifying": 4039,
        "Ġactual": 4040,
        "ĠInternational": 4041,
        "Ġvehicle": 4042,
        "Ġchief": 4043,
        "Ġefforts": 4044,
        "ĠLeague": 4045,
        "ĠMost": 4046,
        "Ġwait": 4047,
        "Ġadult": 4048,
        "Ġoverall": 4049,
        "Ġspeech": 4050,
        "Ġhighly": 4051,
        "Ġfemale": 4052,
        "Ġerror": 4053,
        "Ġeffective": 4054,
        "54": 4055,
        "Ġencour": 4056,
        "well": 4057,
        "Ġfailed": 4058,
        "Ġconserv": 4059,
        "Ġprograms": 4060,
        "Ġtrou": 4061,
        "Ġahead": 4062,
        "500": 4063,
        "vertisement": 4064,
        "IP": 4065,
        "ĠFound": 4066,
        "pir": 4067,
        "Ġ%": 4068,
        "Ġcrime": 4069,
        "ander": 4070,
        "Ġlocation": 4071,
        "ĠIran": 4072,
        "Ġbehavior": 4073,
        "azing": 4074,
        "Ġrare": 4075,
        "Ġemb": 4076,
        "Ġcaused": 4077,
        "Ġship": 4078,
        "Ġactive": 4079,
        "Ġcontribut": 4080,
        "Ġgreen": 4081,
        "Ġacqu": 4082,
        "Ġreflect": 4083,
        "venue": 4084,
        "Ġfirm": 4085,
        "Ġbirth": 4086,
        "].": 4087,
        "Ġclearly": 4088,
        "Ġemot": 4089,
        "Ġagency": 4090,
        "riage": 4091,
        "Ġmemory": 4092,
        "98": 4093,
        "SA": 4094,
        "ĠSee": 4095,
        "acing": 4096,
        "CC": 4097,
        "Ġbiggest": 4098,
        "Ġrap": 4099,
        "Ġbasic": 4100,
        "Ġband": 4101,
        "eat": 4102,
        "Ġsuspect": 4103,
        "ĠMac": 4104,
        "Ġ90": 4105,
        "mark": 4106,
        "istan": 4107,
        "Ġspread": 4108,
        "ams": 4109,
        "ki": 4110,
        "asy": 4111,
        "rav": 4112,
        "ĠRober": 4113,
        "Ġdemonstr": 4114,
        "rated": 4115,
        "Ġabsolute": 4116,
        "Ġplaces": 4117,
        "Ġimpl": 4118,
        "ibrary": 4119,
        "Ġcards": 4120,
        "Ġdestroy": 4121,
        "Ġvirt": 4122,
        "vere": 4123,
        "Ġappeared": 4124,
        "yan": 4125,
        "point": 4126,
        "Ġbeg": 4127,
        "Ġtemper": 4128,
        "spe": 4129,
        "anted": 4130,
        "ears": 4131,
        "ĠDirect": 4132,
        "Ġlength": 4133,
        "Ġblog": 4134,
        "amb": 4135,
        "Ġinteg": 4136,
        "Ġresources": 4137,
        "acc": 4138,
        "iful": 4139,
        "Ġspot": 4140,
        "Ġforced": 4141,
        "Ġthousands": 4142,
        "ĠMinister": 4143,
        "Ġqual": 4144,
        "ĠFrench": 4145,
        "atically": 4146,
        "Ġgenerally": 4147,
        "Ġdrink": 4148,
        "Ġthus": 4149,
        "IL": 4150,
        "odes": 4151,
        "Ġappropri": 4152,
        "ĠRead": 4153,
        "Ġwhom": 4154,
        "Ġeye": 4155,
        "Ġcollege": 4156,
        "Ġ45": 4157,
        "irection": 4158,
        "Ġensure": 4159,
        "Ġapparent": 4160,
        "iders": 4161,
        "Ġreligious": 4162,
        "Ġminor": 4163,
        "olic": 4164,
        "Ġtro": 4165,
        "ĠWhy": 4166,
        "ribute": 4167,
        "met": 4168,
        "Ġprimary": 4169,
        "Ġdeveloped": 4170,
        "Ġpeace": 4171,
        "Ġskin": 4172,
        "ste": 4173,
        "ava": 4174,
        "Ġblue": 4175,
        "Ġfamilies": 4176,
        "Ġir": 4177,
        "Ġapply": 4178,
        "Ġinform": 4179,
        "ĠSmith": 4180,
        "CT": 4181,
        "ii": 4182,
        "Ġlimit": 4183,
        "Ġresist": 4184,
        "................": 4185,
        "umn": 4186,
        "Ġconflic": 4187,
        "Ġtwe": 4188,
        "udd": 4189,
        "ĠTom": 4190,
        "Ġliter": 4191,
        "que": 4192,
        "bon": 4193,
        "Ġhair": 4194,
        "Ġeventually": 4195,
        "Ġpus": 4196,
        "Ġhelped": 4197,
        "Ġagg": 4198,
        "orney": 4199,
        "ĠApple": 4200,
        "Ġfit": 4201,
        "ĠSur": 4202,
        "Ġprem": 4203,
        "Ġsales": 4204,
        "Ġseconds": 4205,
        "Ġstrength": 4206,
        "Ġfeeling": 4207,
        "¿½": 4208,
        "Ġtour": 4209,
        "Ġknows": 4210,
        "oom": 4211,
        "Ġexerc": 4212,
        "Ġsomew": 4213,
        "ï¿½": 4214,
        ">>": 4215,
        "Ġspokes": 4216,
        "Ġideas": 4217,
        "Ġregist": 4218,
        "soft": 4219,
        "ĠDel": 4220,
        "ĠPC": 4221,
        "Ġpropos": 4222,
        "Ġlaunch": 4223,
        "Ġbottom": 4224,
        "TH": 4225,
        "ĠPlease": 4226,
        "vest": 4227,
        "itz": 4228,
        "ĠInter": 4229,
        "Ġscript": 4230,
        "Ġrat": 4231,
        "arning": 4232,
        "Ġil": 4233,
        "ĠJer": 4234,
        "ĠAre": 4235,
        "Ġwhatever": 4236,
        "oken": 4237,
        "cience": 4238,
        "Ġmode": 4239,
        "Ġagree": 4240,
        "Ġsources": 4241,
        "Ġinitial": 4242,
        "Ġrestrict": 4243,
        "Ġwonder": 4244,
        "usion": 4245,
        "####": 4246,
        "ĠSil": 4247,
        "ville": 4248,
        "Ġburn": 4249,
        "tw": 4250,
        "asion": 4251,
        "ĠÂ£": 4252,
        "Ġnor": 4253,
        "uing": 4254,
        "Ġreached": 4255,
        "Ġsun": 4256,
        "Ġcateg": 4257,
        "igration": 4258,
        "Ġcook": 4259,
        "Ġpromot": 4260,
        "Ġmale": 4261,
        "Ġclimate": 4262,
        "Ġfix": 4263,
        "Ġalleged": 4264,
        "UR": 4265,
        "alled": 4266,
        "Ġimages": 4267,
        "Cont": 4268,
        "ota": 4269,
        "Ġschools": 4270,
        "ios": 4271,
        "Ġdrop": 4272,
        "Ġstream": 4273,
        "ĠMo": 4274,
        "Ġpreviously": 4275,
        "aling": 4276,
        "Ġpet": 4277,
        "Ġdouble": 4278,
        "Ġ(@": 4279,
        "annel": 4280,
        "Ġdefault": 4281,
        "ties": 4282,
        "Ġrank": 4283,
        "ĠDec": 4284,
        "ĠCouncil": 4285,
        "Ġweapon": 4286,
        "Ġstock": 4287,
        "Ġanaly": 4288,
        "ĠStr": 4289,
        "Ġpicture": 4290,
        "ĠPolice": 4291,
        "ference": 4292,
        "Ġcentury": 4293,
        "Ġcitizens": 4294,
        "Ġonto": 4295,
        "Ġexpand": 4296,
        "Ġhero": 4297,
        "ĠSol": 4298,
        "Ġwild": 4299,
        "Ġupdate": 4300,
        "Ġcustomers": 4301,
        "ront": 4302,
        "def": 4303,
        "Ġlik": 4304,
        "Ġcriminal": 4305,
        "ĠChristian": 4306,
        "SP": 4307,
        "76": 4308,
        "Ġleaving": 4309,
        "Ġotherwise": 4310,
        "ĠDist": 4311,
        "Ġbasis": 4312,
        "52": 4313,
        "53": 4314,
        "icip": 4315,
        "ĠBer": 4316,
        "Ġrecommend": 4317,
        "Ġfloor": 4318,
        "Ġcrowd": 4319,
        "oles": 4320,
        "Ġ70": 4321,
        "Ġcentral": 4322,
        "ĠEv": 4323,
        "Ġdream": 4324,
        "Ġdownload": 4325,
        "Ġconfir": 4326,
        "ĠThom": 4327,
        "Ġwindow": 4328,
        "Ġhappens": 4329,
        "Ġunit": 4330,
        "Ġtend": 4331,
        "Ġspl": 4332,
        "Ġbecomes": 4333,
        "Ġfighting": 4334,
        "Ġpredict": 4335,
        "ĠPress": 4336,
        "ĠPower": 4337,
        "Ġheavy": 4338,
        "aked": 4339,
        "Ġfan": 4340,
        "orter": 4341,
        "ategy": 4342,
        "BA": 4343,
        "izes": 4344,
        "Ġspend": 4345,
        "Here": 4346,
        "Ġ2007": 4347,
        "Ġadop": 4348,
        "ĠHam": 4349,
        "Ġfootball": 4350,
        "ĠPort": 4351,
        "oday": 4352,
        "51": 4353,
        "ampions": 4354,
        "Ġtransfer": 4355,
        "ht": 4356,
        "Ġ38": 4357,
        "term": 4358,
        "acity": 4359,
        "Ġbur": 4360,
        "],": 4361,
        "ternal": 4362,
        "rig": 4363,
        "but": 4364,
        "Ġtherefore": 4365,
        "ĠBecause": 4366,
        "resp": 4367,
        "rey": 4368,
        "Ġmission": 4369,
        "Some": 4370,
        "Ġnoted": 4371,
        "Ġassum": 4372,
        "Ġdisease": 4373,
        "Ġedit": 4374,
        "Ġprogress": 4375,
        "rd": 4376,
        "ĠBrown": 4377,
        "ocal": 4378,
        "Ġadding": 4379,
        "Ġraised": 4380,
        "ĠAny": 4381,
        "Ġtick": 4382,
        "Ġseeing": 4383,
        "ĠPeople": 4384,
        "Ġagreement": 4385,
        "Ġserver": 4386,
        "Ġwat": 4387,
        "Ġdebate": 4388,
        "Ġsupposed": 4389,
        "iling": 4390,
        "Ġlargest": 4391,
        "Ġsuccessful": 4392,
        "ĠPri": 4393,
        "ĠDemocratic": 4394,
        "Ġjump": 4395,
        "ĠSyria": 4396,
        "Ġowners": 4397,
        "Ġoffers": 4398,
        "Ġshooting": 4399,
        "Ġeffic": 4400,
        "sey": 4401,
        "Ġhaven": 4402,
        "verse": 4403,
        "tered": 4404,
        "ĠLight": 4405,
        "imal": 4406,
        "ĠBig": 4407,
        "Ġdefend": 4408,
        "Ġbeat": 4409,
        "Ġrecords": 4410,
        "%)": 4411,
        "Ġscen": 4412,
        "Ġemployees": 4413,
        "Ġdevices": 4414,
        "hem": 4415,
        "Ġcommer": 4416,
        "ĠMex": 4417,
        "Ġbenefit": 4418,
        "ĠProf": 4419,
        "Ġilleg": 4420,
        "Ġsurface": 4421,
        "ĠAlso": 4422,
        "Ġharm": 4423,
        "ingly": 4424,
        "wide": 4425,
        "ĠAlex": 4426,
        "Ġshut": 4427,
        "ĠCur": 4428,
        "Ġlose": 4429,
        "pm": 4430,
        "Ġchallenge": 4431,
        "semb": 4432,
        "Ġstation": 4433,
        "Ġintelligence": 4434,
        "Ġaccur": 4435,
        "ĠFlor": 4436,
        "Ġrequires": 4437,
        "ĠMal": 4438,
        "bum": 4439,
        "Ġhospital": 4440,
        "Ġspirit": 4441,
        "Ġoffered": 4442,
        "Ġproduce": 4443,
        "ĠCommun": 4444,
        "Ġcreating": 4445,
        "Ġcris": 4446,
        "spect": 4447,
        "Ġended": 4448,
        "Ġdaily": 4449,
        "Ġvoters": 4450,
        "lands": 4451,
        "ias": 4452,
        "ih": 4453,
        "ona": 4454,
        "Ġsmart": 4455,
        "ĠOffice": 4456,
        "ĠLord": 4457,
        "rial": 4458,
        "ĠInternet": 4459,
        "Ġcircum": 4460,
        "Ġextremely": 4461,
        "'.": 4462,
        "Ġopinion": 4463,
        "ĠMil": 4464,
        "Ġgain": 4465,
        "BS": 4466,
        "ĠFin": 4467,
        "yp": 4468,
        "Ġuseful": 4469,
        "Ġbudget": 4470,
        "Ġcomfort": 4471,
        "isf": 4472,
        "Ġbackground": 4473,
        "eline": 4474,
        "Ġepisode": 4475,
        "Ġenemy": 4476,
        "Ġtrial": 4477,
        "Ġestablish": 4478,
        "date": 4479,
        "ĠCap": 4480,
        "Ġcontinues": 4481,
        "Ġshowing": 4482,
        "ĠUnion": 4483,
        "with": 4484,
        "Ġposted": 4485,
        "ĠSystem": 4486,
        "Ġeat": 4487,
        "rian": 4488,
        "Ġrise": 4489,
        "ĠGermany": 4490,
        "ils": 4491,
        "Ġsigned": 4492,
        "Ġvill": 4493,
        "Ġgrand": 4494,
        "mor": 4495,
        "ĠEngland": 4496,
        "Ġprojects": 4497,
        "umber": 4498,
        "Ġconference": 4499,
        "za": 4500,
        "Ġresponsible": 4501,
        "ĠArab": 4502,
        "Ġlearned": 4503,
        "âĢĶâĢĶ": 4504,
        "ipping": 4505,
        "ĠGeorge": 4506,
        "OC": 4507,
        "Ġreturned": 4508,
        "ĠAustralia": 4509,
        "Ġbrief": 4510,
        "Qu": 4511,
        "Ġbrand": 4512,
        "illing": 4513,
        "abled": 4514,
        "Ġhighest": 4515,
        "Ġtrain": 4516,
        "ĠCommission": 4517,
        "while": 4518,
        "Ġnom": 4519,
        "ception": 4520,
        "Ġmut": 4521,
        "ĠBlue": 4522,
        "Ġincident": 4523,
        "vant": 4524,
        "86": 4525,
        "ĠID": 4526,
        "Ġnuclear": 4527,
        "74": 4528,
        "ĠLike": 4529,
        "ĠRE": 4530,
        "ĠMicro": 4531,
        "li": 4532,
        "mail": 4533,
        "Ġcharges": 4534,
        "89": 4535,
        "Ġadjust": 4536,
        "ado": 4537,
        "Ġearth": 4538,
        "NA": 4539,
        "Ġprices": 4540,
        "PA": 4541,
        "Ġdraft": 4542,
        "Ġruns": 4543,
        "Ġcandidate": 4544,
        "enses": 4545,
        "Ġmanagement": 4546,
        "ĠPhil": 4547,
        "ĠMiss": 4548,
        "Ġteach": 4549,
        "gram": 4550,
        "Ġunderstanding": 4551,
        "ait": 4552,
        "icago": 4553,
        "Add": 4554,
        "ĠEp": 4555,
        "secut": 4556,
        "Ġseparate": 4557,
        "Ġinstance": 4558,
        "Ġeth": 4559,
        "Ġunless": 4560,
        "********": 4561,
        "ĠFore": 4562,
        "inate": 4563,
        "Ġoperations": 4564,
        "Sp": 4565,
        "Ġfaith": 4566,
        "gar": 4567,
        "ĠChurch": 4568,
        "ronic": 4569,
        "Ġconfig": 4570,
        "osure": 4571,
        "Ġactivities": 4572,
        "Ġtraditional": 4573,
        "Ġ36": 4574,
        "Ġdirection": 4575,
        "Ġmachine": 4576,
        "Ġsurround": 4577,
        "Ġpush": 4578,
        "unction": 4579,
        "ĠEU": 4580,
        "Ġeasier": 4581,
        "Ġargument": 4582,
        "GB": 4583,
        "Ġmicro": 4584,
        "Ġspending": 4585,
        "izations": 4586,
        "Ġtheory": 4587,
        "adow": 4588,
        "Ġcalling": 4589,
        "ĠLast": 4590,
        "Ġder": 4591,
        "Ġinfluence": 4592,
        "Ġcommit": 4593,
        "Ġphoto": 4594,
        "Ġunc": 4595,
        "istry": 4596,
        "gn": 4597,
        "aste": 4598,
        "acks": 4599,
        "Ġdisp": 4600,
        "ady": 4601,
        "do": 4602,
        "ĠGood": 4603,
        "Ġ`": 4604,
        "Ġwish": 4605,
        "Ġrevealed": 4606,
        "ÂłÂł": 4607,
        "lig": 4608,
        "Ġenforce": 4609,
        "ĠCommittee": 4610,
        "Ġchem": 4611,
        "Ġmiles": 4612,
        "Ġinterested": 4613,
        "Ġsolution": 4614,
        "icy": 4615,
        "inct": 4616,
        "Ġ->": 4617,
        "ĠDet": 4618,
        "Ġremoved": 4619,
        "Ġcompar": 4620,
        "eah": 4621,
        "Ġplant": 4622,
        "ĠSince": 4623,
        "Ġachieve": 4624,
        "Ġadvantage": 4625,
        "Ġslightly": 4626,
        "bing": 4627,
        "Ġplaced": 4628,
        "under": 4629,
        "2015": 4630,
        "ĠMad": 4631,
        "Ġtim": 4632,
        "oses": 4633,
        "Ġcru": 4634,
        "ĠRock": 4635,
        "Ġmostly": 4636,
        "Ġnegative": 4637,
        "Ġsetting": 4638,
        "Ġproduced": 4639,
        "Ġmur": 4640,
        "Ġconnection": 4641,
        "ĠMer": 4642,
        "Ġdriver": 4643,
        "Ġexecutive": 4644,
        "Ġassault": 4645,
        "Ġborn": 4646,
        "ĠVer": 4647,
        "tained": 4648,
        "Ġstructure": 4649,
        "Ġreduce": 4650,
        "Ġdecades": 4651,
        "Ġded": 4652,
        "uke": 4653,
        "ĠMany": 4654,
        "idden": 4655,
        "Ġleague": 4656,
        "Se": 4657,
        "Ġjoin": 4658,
        "Ġdisco": 4659,
        "Ġdie": 4660,
        "cks": 4661,
        "actions": 4662,
        "Ġassess": 4663,
        "agn": 4664,
        "Ġgoals": 4665,
        "ours": 4666,
        "IR": 4667,
        "Ġsenior": 4668,
        "iller": 4669,
        "mod": 4670,
        "ipment": 4671,
        "ocol": 4672,
        "uy": 4673,
        "ĠQue": 4674,
        "Ġparties": 4675,
        "irgin": 4676,
        "Ġlearning": 4677,
        "itable": 4678,
        "Ġstreet": 4679,
        "Ġcamera": 4680,
        "App": 4681,
        "Ġskills": 4682,
        "bre": 4683,
        "cious": 4684,
        "Ġcelebr": 4685,
        "ĠFranc": 4686,
        "Ġexisting": 4687,
        "Ġwilling": 4688,
        "lor": 4689,
        "Ġid": 4690,
        "ĠSpace": 4691,
        "Ġcritical": 4692,
        "ĠLa": 4693,
        "ortunately": 4694,
        "Ġserve": 4695,
        "Ġcold": 4696,
        "Ġspecies": 4697,
        "TS": 4698,
        "Ġanimals": 4699,
        "ĠBay": 4700,
        "Ġolder": 4701,
        "ĠUnder": 4702,
        "estic": 4703,
        "ĠTre": 4704,
        "Ġteacher": 4705,
        "Ġprefer": 4706,
        "vis": 4707,
        "Ġthread": 4708,
        "ĠMatt": 4709,
        "Ġmanager": 4710,
        "ãĥ»": 4711,
        "Ġprofessional": 4712,
        "ĠVol": 4713,
        "Ġnotes": 4714,
        "These": 4715,
        "ula": 4716,
        "Ġfresh": 4717,
        "ented": 4718,
        "uzz": 4719,
        "edy": 4720,
        "clusion": 4721,
        "ĠRel": 4722,
        "Ġdoubt": 4723,
        "EO": 4724,
        "Ġopened": 4725,
        "ĠBit": 4726,
        "Advertisement": 4727,
        "Ġguess": 4728,
        "ĠUN": 4729,
        "Ġsequ": 4730,
        "Ġexplain": 4731,
        "otten": 4732,
        "Ġattract": 4733,
        "aks": 4734,
        "Ġstring": 4735,
        "Ġcontext": 4736,
        "ossible": 4737,
        "ĠRepublicans": 4738,
        "Ġsolid": 4739,
        "Ġcities": 4740,
        "Ġasking": 4741,
        "Ġrandom": 4742,
        "ups": 4743,
        "uries": 4744,
        "arant": 4745,
        "dden": 4746,
        "gl": 4747,
        "ĠFlorida": 4748,
        "Ġdepend": 4749,
        "ĠScott": 4750,
        "Ġ33": 4751,
        "ĠiT": 4752,
        "icon": 4753,
        "Ġmentioned": 4754,
        "Ġ2000": 4755,
        "Ġclaimed": 4756,
        "Ġdefinitely": 4757,
        "ulf": 4758,
        "Ġcore": 4759,
        "Ġopening": 4760,
        "ĠConst": 4761,
        "which": 4762,
        "ĠTra": 4763,
        "AG": 4764,
        "72": 4765,
        "Ġbelieved": 4766,
        "ada": 4767,
        "Ġ48": 4768,
        "ĠSecurity": 4769,
        "yright": 4770,
        "ĠPet": 4771,
        "ĠLou": 4772,
        "Ġholding": 4773,
        "================": 4774,
        "Ġice": 4775,
        "Ġbrow": 4776,
        "Ġauthorities": 4777,
        "host": 4778,
        "word": 4779,
        "Ġscore": 4780,
        "ĠDiv": 4781,
        "Ġcells": 4782,
        "Ġtransl": 4783,
        "Ġneighbor": 4784,
        "Ġremove": 4785,
        "uct": 4786,
        "Ġdistrict": 4787,
        "ĠAccording": 4788,
        "Ġworse": 4789,
        "Ġconcerns": 4790,
        "Ġpresidential": 4791,
        "Ġpolicies": 4792,
        "ĠHall": 4793,
        "73": 4794,
        "Ġhus": 4795,
        "AY": 4796,
        "Ġ2006": 4797,
        "ĠJud": 4798,
        "Ġindependent": 4799,
        "ĠJustice": 4800,
        "iliar": 4801,
        "print": 4802,
        "ighter": 4803,
        "Ġprotection": 4804,
        "zen": 4805,
        "Ġsudden": 4806,
        "house": 4807,
        "ĠJes": 4808,
        "PR": 4809,
        "ĠInf": 4810,
        "Ġbul": 4811,
        "Ġ_": 4812,
        "ĠService": 4813,
        "ĠPR": 4814,
        "Ġstrategy": 4815,
        "ffect": 4816,
        "Ġgirls": 4817,
        "Ġmissing": 4818,
        "oyal": 4819,
        "ĠTeam": 4820,
        "ulated": 4821,
        "Ġdat": 4822,
        "Ġpolitics": 4823,
        "abor": 4824,
        "According": 4825,
        "Ġspell": 4826,
        "Ġgraph": 4827,
        "orthern": 4828,
        "TC": 4829,
        "Ab": 4830,
        "Ġlabor": 4831,
        "isher": 4832,
        "Ġkick": 4833,
        "ĠiTunes": 4834,
        "Ġsteps": 4835,
        "poses": 4836,
        "Ġsmaller": 4837,
        "En": 4838,
        "bert": 4839,
        "Ġroll": 4840,
        "Ġresearchers": 4841,
        "Ġclosed": 4842,
        "Ġtransport": 4843,
        "Ġlawy": 4844,
        "________________": 4845,
        "ĠChicago": 4846,
        "Ġaspect": 4847,
        "Ġnone": 4848,
        "Ġmarriage": 4849,
        "96": 4850,
        "Ġelements": 4851,
        "ĠFre": 4852,
        "ĠSal": 4853,
        "Ġdram": 4854,
        "FC": 4855,
        "top": 4856,
        "equ": 4857,
        "Ġhearing": 4858,
        "Ġsupported": 4859,
        "Ġtesting": 4860,
        "cohol": 4861,
        "Ġmassive": 4862,
        "Ġstick": 4863,
        "Ġguard": 4864,
        "isco": 4865,
        "phone": 4866,
        "From": 4867,
        "However": 4868,
        "Ġborder": 4869,
        "Ġcopy": 4870,
        "ography": 4871,
        "list": 4872,
        "71": 4873,
        "Ġowner": 4874,
        "class": 4875,
        "ruit": 4876,
        "rate": 4877,
        "ĠOnce": 4878,
        "Ġdigital": 4879,
        "Ġtask": 4880,
        "ERS": 4881,
        "Ġincred": 4882,
        "tes": 4883,
        "++": 4884,
        "ĠFrance": 4885,
        "Ġbreat": 4886,
        "owl": 4887,
        "Ġissued": 4888,
        "ĠWestern": 4889,
        "Ġdetect": 4890,
        "Ġpartners": 4891,
        "Ġshared": 4892,
        "ĠCall": 4893,
        "Ġcancer": 4894,
        "ache": 4895,
        "ribe": 4896,
        "Ġexplained": 4897,
        "Ġheat": 4898,
        "{\"": 4899,
        "Ġinvestment": 4900,
        "ĠBook": 4901,
        "Ġwood": 4902,
        "Ġtools": 4903,
        "ĠAlthough": 4904,
        "Ġbelief": 4905,
        "Ġcrisis": 4906,
        "Ġge": 4907,
        "ĠMP": 4908,
        "Ġoperation": 4909,
        "type": 4910,
        "~~": 4911,
        "ga": 4912,
        "Ġcontains": 4913,
        "anta": 4914,
        "Ġexpress": 4915,
        "ĠGroup": 4916,
        "ĠJournal": 4917,
        "ka": 4918,
        "Ġamb": 4919,
        "ĠUSA": 4920,
        "Ġfinding": 4921,
        "Ġfunding": 4922,
        "how": 4923,
        "Ġestablished": 4924,
        "ideos": 4925,
        "Ġdegree": 4926,
        "Ġdangerous": 4927,
        "anging": 4928,
        "Ġfreedom": 4929,
        "pport": 4930,
        "outhern": 4931,
        "Ġchurch": 4932,
        "Ġcatch": 4933,
        "ĠTwo": 4934,
        "Ġpresence": 4935,
        "ĠGuard": 4936,
        "Up": 4937,
        "Ġauthority": 4938,
        "ĠProject": 4939,
        "Ġbutton": 4940,
        "Ġconsequ": 4941,
        "Ġvalid": 4942,
        "Ġweak": 4943,
        "Ġstarts": 4944,
        "Ġreference": 4945,
        "ĠMem": 4946,
        "\")": 4947,
        "UN": 4948,
        "orage": 4949,
        "ĠOpen": 4950,
        "Ġcollection": 4951,
        "ym": 4952,
        "gency": 4953,
        "Ġbeautiful": 4954,
        "ros": 4955,
        "Ġtells": 4956,
        "Ġwaiting": 4957,
        "nel": 4958,
        "Ġproviding": 4959,
        "ĠDemocrats": 4960,
        "Ġdaughter": 4961,
        "Ġmaster": 4962,
        "Ġpurposes": 4963,
        "ĠJapanese": 4964,
        "Ġequal": 4965,
        "Ġturns": 4966,
        "Ġdocuments": 4967,
        "Ġwatching": 4968,
        "Res": 4969,
        "Ġran": 4970,
        "2014": 4971,
        "Ġreject": 4972,
        "ĠKorea": 4973,
        "Ġvictims": 4974,
        "Level": 4975,
        "erences": 4976,
        "Ġwitness": 4977,
        "Ġ34": 4978,
        "Ġreform": 4979,
        "coming": 4980,
        "Ġoccup": 4981,
        "Ġcaught": 4982,
        "Ġtraffic": 4983,
        "ading": 4984,
        "Ġmodels": 4985,
        "ario": 4986,
        "Ġserved": 4987,
        "Ġbatter": 4988,
        "uate": 4989,
        "ĠSecretary": 4990,
        "Ġagreed": 4991,
        "Ġtruly": 4992,
        "ynam": 4993,
        "ĠRet": 4994,
        "Ġunits": 4995,
        "ĠResearch": 4996,
        "hand": 4997,
        "azine": 4998,
        "ĠMike": 4999,
        "Ġvariety": 5000,
        "otal": 5001,
        "Ġamazing": 5002,
        "Ġconfirmed": 5003,
        "Ġentirely": 5004,
        "Ġpurchase": 5005,
        "Ġelement": 5006,
        "Ġcash": 5007,
        "Ġdetermine": 5008,
        "De": 5009,
        "Ġcars": 5010,
        "ĠWall": 5011,
        "âĸ": 5012,
        "Ġviews": 5013,
        "Ġdrugs": 5014,
        "Ġdepartment": 5015,
        "ĠStep": 5016,
        "uit": 5017,
        "Ġ39": 5018,
        "asure": 5019,
        "ĠClass": 5020,
        "Ġcovered": 5021,
        "ĠBank": 5022,
        "Ġmere": 5023,
        "uana": 5024,
        "Ġmulti": 5025,
        "Ġmix": 5026,
        "Ġunlike": 5027,
        "levision": 5028,
        "Ġstopped": 5029,
        "Ġsem": 5030,
        "ĠGal": 5031,
        "ules": 5032,
        "Ġwel": 5033,
        "ĠJohnson": 5034,
        "la": 5035,
        "Ġskill": 5036,
        "Ġbecoming": 5037,
        "rie": 5038,
        "Ġappropriate": 5039,
        "fe": 5040,
        "ellow": 5041,
        "ĠProt": 5042,
        "ulate": 5043,
        "ocation": 5044,
        "Ġweekend": 5045,
        "odies": 5046,
        "Ġsites": 5047,
        "Ġanimal": 5048,
        "ĠTim": 5049,
        "Ġscale": 5050,
        "Ġcharged": 5051,
        "Ġinstruct": 5052,
        "illa": 5053,
        "Ġmethods": 5054,
        "Ġcert": 5055,
        "Ġjudge": 5056,
        "ĠHel": 5057,
        "Ġdollars": 5058,
        "Ġstanding": 5059,
        "ĠSqu": 5060,
        "Ġdebt": 5061,
        "liam": 5062,
        "Ġdriving": 5063,
        "ĠSum": 5064,
        "ĠEdition": 5065,
        "Ġalbum": 5066,
        "andon": 5067,
        "IF": 5068,
        "ĠUk": 5069,
        "63": 5070,
        "ader": 5071,
        "Ġcommercial": 5072,
        "esh": 5073,
        "ĠGovernment": 5074,
        "Ġdiscovered": 5075,
        "Ġoutput": 5076,
        "ĠHillary": 5077,
        "ĠCarol": 5078,
        "Ġ2005": 5079,
        "Ġabuse": 5080,
        "ancing": 5081,
        "Ġswitch": 5082,
        "Ġannual": 5083,
        "Tw": 5084,
        "Ġstated": 5085,
        "agement": 5086,
        "inner": 5087,
        "Ġdemocr": 5088,
        "Ġresidents": 5089,
        "Ġallowing": 5090,
        "Ġfactors": 5091,
        "odd": 5092,
        "Ġfuck": 5093,
        "emies": 5094,
        "Ġoccurred": 5095,
        "oti": 5096,
        "Ġnorth": 5097,
        "ĠPublic": 5098,
        "Ġinjury": 5099,
        "Ġinsurance": 5100,
        "CL": 5101,
        "olly": 5102,
        "ãĢ": 5103,
        "Ġrepeated": 5104,
        "Ġarms": 5105,
        "anged": 5106,
        "Ġconstruction": 5107,
        "Ġfle": 5108,
        "PU": 5109,
        "icians": 5110,
        "Ġforms": 5111,
        "ĠMcC": 5112,
        "antic": 5113,
        "Ġmental": 5114,
        "pire": 5115,
        "Ġequipment": 5116,
        "Ġfant": 5117,
        "Ġdiscussion": 5118,
        "Ġregarding": 5119,
        "kin": 5120,
        "arp": 5121,
        "Ġchair": 5122,
        "ogue": 5123,
        "Ġproceed": 5124,
        "ĠId": 5125,
        "Our": 5126,
        "Ġmurder": 5127,
        "Man": 5128,
        "Ġ49": 5129,
        "asp": 5130,
        "Ġsupply": 5131,
        "Ġinput": 5132,
        "Ġwealth": 5133,
        "liament": 5134,
        "Ġproced": 5135,
        "orial": 5136,
        "ĠStat": 5137,
        "ĠNFL": 5138,
        "hens": 5139,
        "ĠInstitute": 5140,
        "Ġputting": 5141,
        "ournament": 5142,
        "etic": 5143,
        "Ġlocated": 5144,
        "Ġkid": 5145,
        "eria": 5146,
        "run": 5147,
        "Ġprinc": 5148,
        "Ġ!": 5149,
        "going": 5150,
        "ĠBet": 5151,
        "Ġclot": 5152,
        "Ġtelling": 5153,
        "Ġproposed": 5154,
        "iot": 5155,
        "orry": 5156,
        "Ġfunds": 5157,
        "gment": 5158,
        "ĠLife": 5159,
        "Ġbaby": 5160,
        "ĠBack": 5161,
        "Ġspoke": 5162,
        "Image": 5163,
        "Ġearn": 5164,
        "ĠAT": 5165,
        "gu": 5166,
        "Ġexchange": 5167,
        "ĠLin": 5168,
        "oving": 5169,
        "Ġpair": 5170,
        "More": 5171,
        "azon": 5172,
        "Ġarrested": 5173,
        "Ġkilling": 5174,
        "can": 5175,
        "ĠCard": 5176,
        "yd": 5177,
        "Ġidentified": 5178,
        "Ġmobile": 5179,
        "Ġthanks": 5180,
        "onym": 5181,
        "ĠForm": 5182,
        "Ġhundreds": 5183,
        "ĠChris": 5184,
        "ĠCat": 5185,
        "Ġtrend": 5186,
        "hat": 5187,
        "ĠAv": 5188,
        "oman": 5189,
        "Ġelectric": 5190,
        "ĠWil": 5191,
        "SE": 5192,
        "Of": 5193,
        "Ġrestaur": 5194,
        "oted": 5195,
        "Ġtrig": 5196,
        "Ġnine": 5197,
        "Ġbomb": 5198,
        "Why": 5199,
        "Â¯": 5200,
        "Ġcoverage": 5201,
        "Ġappeal": 5202,
        "ĠRobert": 5203,
        "ĠSup": 5204,
        "Ġfinished": 5205,
        "Ġflow": 5206,
        "Ġdeliver": 5207,
        "Ġcalcul": 5208,
        "Ġphotos": 5209,
        "Ġphil": 5210,
        "Ġpieces": 5211,
        "Ġappre": 5212,
        "kes": 5213,
        "Ġrough": 5214,
        "Do": 5215,
        "Ġpartner": 5216,
        "Ġconcerned": 5217,
        "Ġ37": 5218,
        "ĠGen": 5219,
        "Col": 5220,
        "ctors": 5221,
        "Ġ=>": 5222,
        "state": 5223,
        "Ġsuggested": 5224,
        "ĠForce": 5225,
        "CE": 5226,
        "Ġherself": 5227,
        "ĠPlan": 5228,
        "works": 5229,
        "ooth": 5230,
        "rency": 5231,
        "Ġcorner": 5232,
        "Ġhusband": 5233,
        "Ġinternet": 5234,
        "ĠAut": 5235,
        "ems": 5236,
        "osen": 5237,
        "ĠAtl": 5238,
        "gen": 5239,
        "Ġbalance": 5240,
        "62": 5241,
        "Ġsounds": 5242,
        "text": 5243,
        "Ġarr": 5244,
        "oves": 5245,
        "Ġmillions": 5246,
        "Ġradio": 5247,
        "Ġsatisf": 5248,
        "ĠDam": 5249,
        "Mr": 5250,
        "Go": 5251,
        "Spe": 5252,
        "Ġcombat": 5253,
        "rant": 5254,
        "ĠGree": 5255,
        "Ġfuel": 5256,
        "Ġdistance": 5257,
        "Ġtests": 5258,
        "Ġdecre": 5259,
        "ĠEr": 5260,
        "Ġmanaged": 5261,
        "DS": 5262,
        "Ġtit": 5263,
        "Ġmeasures": 5264,
        "ĠLiber": 5265,
        "Ġattend": 5266,
        "ashed": 5267,
        "ĠJose": 5268,
        "ĠNight": 5269,
        "dit": 5270,
        "ĠNov": 5271,
        "ĠEnd": 5272,
        "outs": 5273,
        "Ġgeneration": 5274,
        "Ġadvoc": 5275,
        "yth": 5276,
        "Ġconversation": 5277,
        "ĠSky": 5278,
        "active": 5279,
        "cel": 5280,
        "rier": 5281,
        "ĠFrank": 5282,
        "Ġgender": 5283,
        "Ġconcent": 5284,
        "Ġcarried": 5285,
        "anda": 5286,
        "ĠVirgin": 5287,
        "Ġarrived": 5288,
        "icide": 5289,
        "aded": 5290,
        "Ġfailure": 5291,
        "Ġminimum": 5292,
        "lets": 5293,
        "Ġworst": 5294,
        "Ġkeeping": 5295,
        "Ġintended": 5296,
        "Ġillegal": 5297,
        "Ġsubsc": 5298,
        "Ġdetermined": 5299,
        "Ġtrip": 5300,
        "Yes": 5301,
        "Ġraise": 5302,
        "Ġ~": 5303,
        "Ġfeels": 5304,
        "Ġpackage": 5305,
        "ĠJo": 5306,
        "hi": 5307,
        "2016": 5308,
        "real": 5309,
        "Ġfra": 5310,
        "Ġsymb": 5311,
        "Me": 5312,
        "ucky": 5313,
        "pret": 5314,
        "ĠKh": 5315,
        "ĠEdit": 5316,
        "ĠWeb": 5317,
        "emic": 5318,
        "ĠColor": 5319,
        "Ġjustice": 5320,
        "Int": 5321,
        "Ġfarm": 5322,
        "cknow": 5323,
        "\">": 5324,
        "eless": 5325,
        "Ġreduced": 5326,
        "Ġ500": 5327,
        "xx": 5328,
        "ĠRad": 5329,
        "ĠWood": 5330,
        "Ġclin": 5331,
        "Ġhyp": 5332,
        "iler": 5333,
        "ura": 5334,
        "kins": 5335,
        "85": 5336,
        "61": 5337,
        "ĠTheir": 5338,
        "ĠMary": 5339,
        "Ġsan": 5340,
        "Ġnovel": 5341,
        "ĠWho": 5342,
        "Ġcapacity": 5343,
        "Ġimpossible": 5344,
        "Ġplays": 5345,
        "Ġminister": 5346,
        "ijuana": 5347,
        "icate": 5348,
        "ĠSet": 5349,
        "Ġfram": 5350,
        "Ġing": 5351,
        "Ġcommunities": 5352,
        "ĠFBI": 5353,
        "ita": 5354,
        "Ġbon": 5355,
        "Ġstrateg": 5356,
        "Ġinterests": 5357,
        "lock": 5358,
        "gers": 5359,
        "mas": 5360,
        "ĠAND": 5361,
        "Ġconflict": 5362,
        "Ġrequirements": 5363,
        "Ġsac": 5364,
        "Ġoperating": 5365,
        "ini": 5366,
        "related": 5367,
        "Ġcommitted": 5368,
        "Ġrelatively": 5369,
        "Ġsouth": 5370,
        "Â¯Â¯": 5371,
        "Ġafford": 5372,
        "Ġidentity": 5373,
        "Ġdecisions": 5374,
        "Ġaccused": 5375,
        "place": 5376,
        "Ġvictory": 5377,
        "och": 5378,
        "iat": 5379,
        "Name": 5380,
        "Com": 5381,
        "tion": 5382,
        "eds": 5383,
        "Ġseek": 5384,
        "Ġtight": 5385,
        "ĠImages": 5386,
        "Ġiniti": 5387,
        "Ġhumans": 5388,
        "Ġfamiliar": 5389,
        "Ġaudience": 5390,
        "Ġinternal": 5391,
        "venture": 5392,
        "Ġsides": 5393,
        "ĠTO": 5394,
        "Ġdim": 5395,
        "Ġconclud": 5396,
        "Ġappoint": 5397,
        "Ġenforcement": 5398,
        "ĠJim": 5399,
        "ĠAssociation": 5400,
        "Ġcircumst": 5401,
        "ĠCanadian": 5402,
        "Ġjoined": 5403,
        "Ġdifferences": 5404,
        "ĠLos": 5405,
        "Ġprotest": 5406,
        "Ġtwice": 5407,
        "win": 5408,
        "Ġglass": 5409,
        "arsh": 5410,
        "ĠArmy": 5411,
        "Ġexpression": 5412,
        "Ġdecide": 5413,
        "Ġplanning": 5414,
        "ania": 5415,
        "Ġhandle": 5416,
        "ĠMicrosoft": 5417,
        "ĠNor": 5418,
        "Ġmaximum": 5419,
        "ĠRev": 5420,
        "Ġsea": 5421,
        "Ġeval": 5422,
        "Ġhelps": 5423,
        "ref": 5424,
        "Ġbound": 5425,
        "Ġmouth": 5426,
        "Ġstandards": 5427,
        "Ġclim": 5428,
        "ĠCamp": 5429,
        "ĠFox": 5430,
        "cles": 5431,
        "Ġarmy": 5432,
        "ĠTechn": 5433,
        "acking": 5434,
        "xy": 5435,
        "SS": 5436,
        "Ġ42": 5437,
        "Ġbug": 5438,
        "ĠUkrain": 5439,
        "ĠMax": 5440,
        "ĠJones": 5441,
        "ĠShow": 5442,
        "lo": 5443,
        "Ġplanet": 5444,
        "Ġ75": 5445,
        "Ġwinning": 5446,
        "Ġfaster": 5447,
        "Ġspect": 5448,
        "Ġbroken": 5449,
        "TR": 5450,
        "Ġdefined": 5451,
        "Ġhealthy": 5452,
        "Ġcompetition": 5453,
        "https": 5454,
        "ĠIsland": 5455,
        "ĠFe": 5456,
        "Ġannounce": 5457,
        "ĠCup": 5458,
        "ĠInstead": 5459,
        "Ġclient": 5460,
        "Ġpossibly": 5461,
        "section": 5462,
        "ocket": 5463,
        "look": 5464,
        "Ġfinish": 5465,
        "Ġcrew": 5466,
        "Ġreserv": 5467,
        "Ġeditor": 5468,
        "Ġhate": 5469,
        "Ġsale": 5470,
        "Ġcontrovers": 5471,
        "Ġpages": 5472,
        "wing": 5473,
        "Ġnumer": 5474,
        "Ġopposition": 5475,
        "Ġ2004": 5476,
        "Ġrefuge": 5477,
        "Ġflight": 5478,
        "Ġapart": 5479,
        "ĠLat": 5480,
        "Americ": 5481,
        "ĠAfrica": 5482,
        "Ġapplications": 5483,
        "ĠPalest": 5484,
        "ĠBur": 5485,
        "Ġgar": 5486,
        "ĠSocial": 5487,
        "Ġupgr": 5488,
        "Ġshape": 5489,
        "Ġspeaking": 5490,
        "ansion": 5491,
        "ao": 5492,
        "ĠSn": 5493,
        "Ġworry": 5494,
        "ĠBritain": 5495,
        "Please": 5496,
        "roud": 5497,
        "Ġhun": 5498,
        "Ġintroduced": 5499,
        "Ġdiet": 5500,
        "Ind": 5501,
        "ĠSecond": 5502,
        "Ġfunctions": 5503,
        "uts": 5504,
        "ĠEach": 5505,
        "ĠJeff": 5506,
        "Ġstress": 5507,
        "Ġaccounts": 5508,
        "Ġguarant": 5509,
        "ĠAnn": 5510,
        "edia": 5511,
        "Ġhonest": 5512,
        "Ġtree": 5513,
        "ĠAfrican": 5514,
        "ĠBush": 5515,
        "},": 5516,
        "Ġsch": 5517,
        "ĠOnly": 5518,
        "Ġfif": 5519,
        "igan": 5520,
        "Ġexercise": 5521,
        "ĠExp": 5522,
        "Ġscientists": 5523,
        "Ġlegislation": 5524,
        "ĠWork": 5525,
        "ĠSpr": 5526,
        "ÃĤ": 5527,
        "ĠHuman": 5528,
        "Ġè": 5529,
        "Ġsurvey": 5530,
        "Ġrich": 5531,
        "rip": 5532,
        "Ġmaintain": 5533,
        "Ġflo": 5534,
        "Ġleadership": 5535,
        "stream": 5536,
        "ĠIslamic": 5537,
        "Ġ01": 5538,
        "ĠCollege": 5539,
        "Ġmagic": 5540,
        "ĠPrime": 5541,
        "Ġfigures": 5542,
        "2017": 5543,
        "inder": 5544,
        "xual": 5545,
        "ĠDead": 5546,
        "Ġabsolutely": 5547,
        "Ġfourth": 5548,
        "Ġpresented": 5549,
        "respond": 5550,
        "rible": 5551,
        "Ġalcohol": 5552,
        "ato": 5553,
        "ĠDE": 5554,
        "porary": 5555,
        "Ġgrab": 5556,
        "Ġvari": 5557,
        "Ġquant": 5558,
        "ĠPhoto": 5559,
        "Ġplus": 5560,
        "rick": 5561,
        "arks": 5562,
        "Ġalternative": 5563,
        "Ġpil": 5564,
        "Ġapprox": 5565,
        "that": 5566,
        "Ġobjects": 5567,
        "ĠRo": 5568,
        "ĠAndroid": 5569,
        "Ġsignificantly": 5570,
        "ĠRoad": 5571,
        "kay": 5572,
        "Read": 5573,
        "avor": 5574,
        "Ġacknow": 5575,
        "ĠHD": 5576,
        "ĠSing": 5577,
        "Or": 5578,
        "ĠMont": 5579,
        "Ġuns": 5580,
        "prof": 5581,
        "Ġnegoti": 5582,
        "ĠArch": 5583,
        "iki": 5584,
        "Ġtelevision": 5585,
        "ĠJewish": 5586,
        "Ġcommittee": 5587,
        "Ġmotor": 5588,
        "Ġappearance": 5589,
        "Ġsitting": 5590,
        "Ġstrike": 5591,
        "ĠDown": 5592,
        "comp": 5593,
        "ĠHist": 5594,
        "Ġfold": 5595,
        "acement": 5596,
        "ĠLouis": 5597,
        "Ġbelong": 5598,
        "ĠâĢ¢": 5599,
        "Ġmort": 5600,
        "Ġprepared": 5601,
        "Ġ64": 5602,
        "ĠMaster": 5603,
        "Ġindeed": 5604,
        "ĠDen": 5605,
        "Ġrent": 5606,
        "TA": 5607,
        "ourney": 5608,
        "arc": 5609,
        "Su": 5610,
        "97": 5611,
        "Ġadvice": 5612,
        "Ġchanging": 5613,
        "Ġlisted": 5614,
        "Ġlaunched": 5615,
        "isation": 5616,
        "ĠPeter": 5617,
        "ishes": 5618,
        "Ġlived": 5619,
        "ĠMel": 5620,
        "ĠSupreme": 5621,
        "ĠFederal": 5622,
        "Ġ);": 5623,
        "ructure": 5624,
        "Ġsets": 5625,
        "Ġphilos": 5626,
        "uous": 5627,
        "ĠÂł": 5628,
        "Ġapplied": 5629,
        "ĠNOT": 5630,
        "Ġhousing": 5631,
        "ĠMount": 5632,
        "Ġodd": 5633,
        "Ġsust": 5634,
        "DA": 5635,
        "fficient": 5636,
        "Ġ?": 5637,
        "olved": 5638,
        "Ġpowers": 5639,
        "Ġthr": 5640,
        "Ġremaining": 5641,
        "ĠWater": 5642,
        "LC": 5643,
        "Ġcauses": 5644,
        "ãģ®": 5645,
        "Ġmanner": 5646,
        "ads": 5647,
        "Ġsuggests": 5648,
        "Ġends": 5649,
        "standing": 5650,
        "fig": 5651,
        "ĠDun": 5652,
        "idth": 5653,
        "Ġgay": 5654,
        "Ġtermin": 5655,
        "ĠAngeles": 5656,
        "MS": 5657,
        "Ġscientific": 5658,
        "Ġcoal": 5659,
        "apers": 5660,
        "bar": 5661,
        "ĠThomas": 5662,
        "Ġsym": 5663,
        "ĠRun": 5664,
        "this": 5665,
        "PC": 5666,
        "igrants": 5667,
        "Ġminute": 5668,
        "ĠDistrict": 5669,
        "cellent": 5670,
        "Ġleaves": 5671,
        "Ġcompleted": 5672,
        "amin": 5673,
        "Ġfocused": 5674,
        "Ġmonitor": 5675,
        "Ġvehicles": 5676,
        "MA": 5677,
        "ĠMass": 5678,
        "ĠGrand": 5679,
        "Ġaffected": 5680,
        "itutional": 5681,
        "Ġconstruct": 5682,
        "Ġfollows": 5683,
        "Ġton": 5684,
        "reens": 5685,
        "Ġhomes": 5686,
        "ĠExt": 5687,
        "ĠLevel": 5688,
        "rast": 5689,
        "ĠIr": 5690,
        "Ġelim": 5691,
        "Ġlargely": 5692,
        "ĠJoe": 5693,
        "Ġvotes": 5694,
        "alls": 5695,
        "Ġbusinesses": 5696,
        "ĠFoundation": 5697,
        "ĠCentral": 5698,
        "Ġyards": 5699,
        "Ġmaterials": 5700,
        "ulner": 5701,
        "Ġguide": 5702,
        "Ġcloser": 5703,
        "ums": 5704,
        "Ġsports": 5705,
        "eder": 5706,
        "Just": 5707,
        "Ġtaxes": 5708,
        "84": 5709,
        "ĠOld": 5710,
        "Ġdecade": 5711,
        "ola": 5712,
        "Ġvir": 5713,
        "Ġdropped": 5714,
        "Ġdelay": 5715,
        "itect": 5716,
        "Ġsecure": 5717,
        "stein": 5718,
        "level": 5719,
        "Ġtreated": 5720,
        "Ġfiled": 5721,
        "aine": 5722,
        "Ġvan": 5723,
        "Ġmir": 5724,
        "Ġcolumn": 5725,
        "icted": 5726,
        "eper": 5727,
        "Ġrot": 5728,
        "Ġconsult": 5729,
        "Ġentry": 5730,
        "Ġmarijuana": 5731,
        "ĠDou": 5732,
        "Ġapparently": 5733,
        "oking": 5734,
        "clusive": 5735,
        "Ġincreases": 5736,
        "ano": 5737,
        "Ġspecifically": 5738,
        "Ġtele": 5739,
        "ensions": 5740,
        "Ġreligion": 5741,
        "abilities": 5742,
        "Ġframe": 5743,
        "ĠNote": 5744,
        "ĠLee": 5745,
        "Ġhelping": 5746,
        "Ġedge": 5747,
        "oston": 5748,
        "Ġorganizations": 5749,
        "Ãĥ": 5750,
        "ĠBoth": 5751,
        "hips": 5752,
        "Ġbigger": 5753,
        "Ġboost": 5754,
        "ĠStand": 5755,
        "Ġrow": 5756,
        "uls": 5757,
        "abase": 5758,
        "Ġrid": 5759,
        "Let": 5760,
        "aren": 5761,
        "rave": 5762,
        "Ġstret": 5763,
        "PD": 5764,
        "Ġvision": 5765,
        "Ġwearing": 5766,
        "Ġappreci": 5767,
        "Ġaward": 5768,
        "ĠUse": 5769,
        "Ġfactor": 5770,
        "war": 5771,
        "ulations": 5772,
        ")(": 5773,
        "Ġgod": 5774,
        "Ġterrit": 5775,
        "Ġparam": 5776,
        "asts": 5777,
        "87": 5778,
        "Ġenemies": 5779,
        "ĠGames": 5780,
        "FF": 5781,
        "Ġaccident": 5782,
        "Well": 5783,
        "ĠMartin": 5784,
        "TER": 5785,
        "Ġath": 5786,
        "ĠHell": 5787,
        "Ġforg": 5788,
        "Ġveter": 5789,
        "ĠMedic": 5790,
        "free": 5791,
        "Ġstars": 5792,
        "Ġexpensive": 5793,
        "Ġacad": 5794,
        "rawn": 5795,
        "ĠWhe": 5796,
        "Ġlock": 5797,
        "Ġformat": 5798,
        "Ġsoldiers": 5799,
        "sm": 5800,
        "Ġagent": 5801,
        "Ġresponsibility": 5802,
        "ora": 5803,
        "ĠScience": 5804,
        "Ġrapid": 5805,
        "Ġtough": 5806,
        "ĠJesus": 5807,
        "Ġbelieves": 5808,
        "ML": 5809,
        "Ġwear": 5810,
        "lete": 5811,
        "ÃĥÃĤ": 5812,
        "ĠDri": 5813,
        "Ġcommission": 5814,
        "ĠBob": 5815,
        "Oh": 5816,
        "aped": 5817,
        "Ġwarm": 5818,
        "ÃĥÃĤÃĥÃĤ": 5819,
        "Ġ2003": 5820,
        "ortion": 5821,
        "Ġhasn": 5822,
        "uster": 5823,
        "Ġunivers": 5824,
        "ĠIll": 5825,
        "Ġking": 5826,
        "ologies": 5827,
        "94": 5828,
        "ĠTem": 5829,
        "ĠMos": 5830,
        "Ġpatient": 5831,
        "ĠMexico": 5832,
        "cean": 5833,
        "ĠDeath": 5834,
        "ĠSanders": 5835,
        "you": 5836,
        "ĠCast": 5837,
        "ĠCompany": 5838,
        "pty": 5839,
        "Ġhappening": 5840,
        "FP": 5841,
        "ĠBattle": 5842,
        "Ġbought": 5843,
        "Am": 5844,
        "Mod": 5845,
        "Us": 5846,
        "uters": 5847,
        "ĠCre": 5848,
        "ĠThose": 5849,
        "Ġ44": 5850,
        "iser": 5851,
        "Ġsoul": 5852,
        "ĠTop": 5853,
        "ĠHarry": 5854,
        "ĠAw": 5855,
        "Ġseat": 5856,
        "ffee": 5857,
        "Ġrevolution": 5858,
        "Ġ(\"": 5859,
        "ĠDuring": 5860,
        "ette": 5861,
        "Ġring": 5862,
        "Ġoffensive": 5863,
        "Ġreturns": 5864,
        "Ġvideos": 5865,
        "Ġdiscl": 5866,
        "Ġfamous": 5867,
        "enced": 5868,
        "ĠSign": 5869,
        "ĠRiver": 5870,
        "Ġ300": 5871,
        "PM": 5872,
        "ĠBus": 5873,
        "ĠCH": 5874,
        "Ġcandidates": 5875,
        "arden": 5876,
        "Ġpercentage": 5877,
        "Ġvisual": 5878,
        "Ġthank": 5879,
        "Ġtrouble": 5880,
        "nergy": 5881,
        "Ġ2001": 5882,
        "Ġprove": 5883,
        "ashion": 5884,
        "Ġenh": 5885,
        "ĠLong": 5886,
        "UM": 5887,
        "Ġconnected": 5888,
        "Ġpossibility": 5889,
        "Over": 5890,
        "Ġexpert": 5891,
        "Ġlibrary": 5892,
        "arts": 5893,
        "ĠDirector": 5894,
        "Ġfellow": 5895,
        "92": 5896,
        "irty": 5897,
        "Ġdry": 5898,
        "Ġsigns": 5899,
        "ĠLove": 5900,
        "Ġquiet": 5901,
        "foot": 5902,
        "Ġpure": 5903,
        "ĠHun": 5904,
        "Ġfilled": 5905,
        "phas": 5906,
        "ĠElect": 5907,
        "endment": 5908,
        "ĠExpl": 5909,
        "Ġunable": 5910,
        "ns": 5911,
        "mo": 5912,
        "Ġvast": 5913,
        "obe": 5914,
        "Ġidentify": 5915,
        "apping": 5916,
        "ĠCarolina": 5917,
        "gress": 5918,
        "Ġprote": 5919,
        "Ġfish": 5920,
        "Ġcircumstances": 5921,
        "razy": 5922,
        "ĠPhot": 5923,
        "Ġbodies": 5924,
        "ĠMur": 5925,
        "Ġdeveloping": 5926,
        "ĠAR": 5927,
        "Ġexperienced": 5928,
        "Ġsubstant": 5929,
        "ĠBoard": 5930,
        "esome": 5931,
        "Ġdomestic": 5932,
        "Ġcombined": 5933,
        "ĠPut": 5934,
        "Ġchemical": 5935,
        "ĠChild": 5936,
        "Ġpool": 5937,
        "ĠCy": 5938,
        "Ġegg": 5939,
        "cons": 5940,
        "sters": 5941,
        "Ġhurt": 5942,
        "Ġmarkets": 5943,
        "Ġconservative": 5944,
        "Ġsupporters": 5945,
        "Ġagencies": 5946,
        "idel": 5947,
        "Ob": 5948,
        "urb": 5949,
        "Ġ43": 5950,
        "ĠDefense": 5951,
        "ye": 5952,
        "ĠAp": 5953,
        "dule": 5954,
        "Ġtemperature": 5955,
        "Ġconducted": 5956,
        "ĠChief": 5957,
        "Ġpulled": 5958,
        "Ġfol": 5959,
        "Last": 5960,
        "onto": 5961,
        "osis": 5962,
        "VER": 5963,
        "Des": 5964,
        "ĠPan": 5965,
        "First": 5966,
        "Ġadvance": 5967,
        "Ġlicense": 5968,
        "rors": 5969,
        "ĠJon": 5970,
        "Ġimagine": 5971,
        "Ġhell": 5972,
        "Ġfixed": 5973,
        "Ġincor": 5974,
        "osite": 5975,
        "ĠLog": 5976,
        "icken": 5977,
        "]:": 5978,
        "Ġsurprise": 5979,
        "hab": 5980,
        "Ġcraft": 5981,
        "olt": 5982,
        "ĠJul": 5983,
        "Ġdial": 5984,
        "Ġrelevant": 5985,
        "Ġentered": 5986,
        "Ġleads": 5987,
        "ĠAD": 5988,
        "ĠClean": 5989,
        "Ġpictures": 5990,
        "essor": 5991,
        "Ġalt": 5992,
        "Ġpaying": 5993,
        "Per": 5994,
        "ĠMarket": 5995,
        "Ġupdates": 5996,
        "amily": 5997,
        "ĠType": 5998,
        "ĠHome": 5999,
        "Ġ55": 6000,
        "sembly": 6001,
        "rome": 6002,
        "83": 6003,
        "Ġgreatest": 6004,
        "Ġheight": 6005,
        "Ġheav": 6006,
        "aints": 6007,
        "Ġlisten": 6008,
        "aser": 6009,
        "ĠSH": 6010,
        "Ġcapable": 6011,
        "acle": 6012,
        "Ġperspect": 6013,
        "inating": 6014,
        "Ġoffering": 6015,
        "rypt": 6016,
        "ĠDevelop": 6017,
        "abin": 6018,
        "rc": 6019,
        "Ġbright": 6020,
        "alty": 6021,
        "arrow": 6022,
        "Ġsuppl": 6023,
        "inding": 6024,
        "acked": 6025,
        "gypt": 6026,
        "ĠAnother": 6027,
        "pg": 6028,
        "ĠVirginia": 6029,
        "ĠLu": 6030,
        "Ġplanned": 6031,
        "Ġpit": 6032,
        "Ġsweet": 6033,
        "Type": 6034,
        "ĠDi": 6035,
        "Ġtypically": 6036,
        "ĠFrancisco": 6037,
        "Ġprospect": 6038,
        "ĠDan": 6039,
        "Ġteen": 6040,
        "rees": 6041,
        "Ġsched": 6042,
        "Ġhol": 6043,
        "Ġscr": 6044,
        "Ġlots": 6045,
        "life": 6046,
        "Ġnewsp": 6047,
        "Ġforget": 6048,
        "ĠNone": 6049,
        "ĠMiddle": 6050,
        "ĠRyan": 6051,
        "edd": 6052,
        "Ġsevere": 6053,
        "Ġsuit": 6054,
        "ller": 6055,
        "93": 6056,
        "Ġcorrespond": 6057,
        "Ġexplos": 6058,
        "uations": 6059,
        "Ġflag": 6060,
        "game": 6061,
        "rid": 6062,
        "Ġprin": 6063,
        "ĠData": 6064,
        "Ġdeploy": 6065,
        "ĠEnter": 6066,
        "suit": 6067,
        "ghan": 6068,
        "ĠMen": 6069,
        "Ġthoughts": 6070,
        "Ġmatters": 6071,
        "Ġadapt": 6072,
        "ĠAri": 6073,
        "Ġfill": 6074,
        "Ġforth": 6075,
        "Ġsam": 6076,
        "Ġ41": 6077,
        "Ġpayment": 6078,
        "ĠHor": 6079,
        "Ġspring": 6080,
        "duc": 6081,
        "Ġlosing": 6082,
        "Ġbringing": 6083,
        "FO": 6084,
        "ala": 6085,
        "Ġdistribution": 6086,
        "hered": 6087,
        "bour": 6088,
        "ĠIsraeli": 6089,
        "oma": 6090,
        "Ġcombination": 6091,
        "Ġplenty": 6092,
        "VE": 6093,
        "Can": 6094,
        "ĠHaw": 6095,
        "Ġperman": 6096,
        "ĠSpecial": 6097,
        "Ġtow": 6098,
        "Ġseeking": 6099,
        "Ġexamples": 6100,
        "Ġclasses": 6101,
        "cr": 6102,
        "Ġbeer": 6103,
        "Ġmoves": 6104,
        "ĠIP": 6105,
        "ĠKn": 6106,
        "Ġpanel": 6107,
        "Even": 6108,
        "Ġproperly": 6109,
        "Ġris": 6110,
        "Ġplug": 6111,
        "Ġestimated": 6112,
        "Every": 6113,
        "Ġdefensive": 6114,
        "agraph": 6115,
        "Ġpregn": 6116,
        "Ġinstit": 6117,
        "ĠVict": 6118,
        "Ġvolume": 6119,
        "Ġpositions": 6120,
        "Ġlinks": 6121,
        "ĠProgram": 6122,
        "ĠWeek": 6123,
        "agues": 6124,
        "Ġtransform": 6125,
        "ker": 6126,
        "ĠCEO": 6127,
        "Ġcas": 6128,
        "Ġopponent": 6129,
        "Ġtweet": 6130,
        "ĠCode": 6131,
        "Ġshop": 6132,
        "Ġfly": 6133,
        "Ġtalks": 6134,
        "Ġbag": 6135,
        "Phone": 6136,
        "Ġaid": 6137,
        "Ġplants": 6138,
        "Ġ65": 6139,
        "Ġattorney": 6140,
        "arters": 6141,
        "quest": 6142,
        "ĠMagic": 6143,
        "Ġbegins": 6144,
        "Ġmyster": 6145,
        "Ġenvironmental": 6146,
        "Ġstorage": 6147,
        "NN": 6148,
        "Ġmarg": 6149,
        "Ġske": 6150,
        "Ġmetal": 6151,
        "elly": 6152,
        "Ġordered": 6153,
        "Ġremained": 6154,
        "Ġloved": 6155,
        "Ġprompt": 6156,
        "Ġupdated": 6157,
        "Ġexperts": 6158,
        "Ġwalking": 6159,
        "Ġancient": 6160,
        "Ġperformed": 6161,
        "ATE": 6162,
        "Ġneither": 6163,
        "iency": 6164,
        "Ġmanufacture": 6165,
        "ĠPak": 6166,
        "Ġselected": 6167,
        "Ġmine": 6168,
        "Ġultimately": 6169,
        "Ġexplan": 6170,
        "Ġlabel": 6171,
        "ĠServices": 6172,
        "ributed": 6173,
        "Trump": 6174,
        "Ġsyn": 6175,
        "ĠUlt": 6176,
        "SC": 6177,
        "Ġmeat": 6178,
        "Ġgiant": 6179,
        "ĠWars": 6180,
        "ĠON": 6181,
        "Ġadm": 6182,
        "Ġinterpret": 6183,
        "Ġevening": 6184,
        "Ġevil": 6185,
        "ĠBoston": 6186,
        "ĠWild": 6187,
        "ĠÃ": 6188,
        "ĠBitcoin": 6189,
        "ĠAmazon": 6190,
        "Dr": 6191,
        "ĠInformation": 6192,
        "Ġobviously": 6193,
        "Ġadvanced": 6194,
        "Photo": 6195,
        "olar": 6196,
        "Ġweather": 6197,
        "Ġsymbol": 6198,
        "Ġsole": 6199,
        "Ġpotentially": 6200,
        "oster": 6201,
        "Ġoriginally": 6202,
        "mun": 6203,
        "300": 6204,
        "aze": 6205,
        "essions": 6206,
        "Ġdeck": 6207,
        "Ġstood": 6208,
        "Ġyouth": 6209,
        "ĠBern": 6210,
        "Rep": 6211,
        "ĠTest": 6212,
        "Ġbasically": 6213,
        "otic": 6214,
        "Ġinvolve": 6215,
        "olit": 6216,
        "lyn": 6217,
        "See": 6218,
        "Ġaircraft": 6219,
        "Ġconfirm": 6220,
        "EW": 6221,
        "Ġmessages": 6222,
        "ĠRichard": 6223,
        "Ġkit": 6224,
        "Ġprohib": 6225,
        "Ġvulner": 6226,
        "isters": 6227,
        "Ġexistence": 6228,
        "Ġturning": 6229,
        "ĠSP": 6230,
        "Ġdesire": 6231,
        "Ġflat": 6232,
        "Ġment": 6233,
        "season": 6234,
        "anges": 6235,
        "Ġneighborhood": 6236,
        "ĠLake": 6237,
        "ATION": 6238,
        "Ġpointed": 6239,
        "bur": 6240,
        "Ġinnov": 6241,
        "ucks": 6242,
        "UL": 6243,
        "Ġprofessor": 6244,
        "Ġexpressed": 6245,
        "AB": 6246,
        "icious": 6247,
        "Ġ2002": 6248,
        "ĠDev": 6249,
        "Ġsession": 6250,
        "Ġbare": 6251,
        "sen": 6252,
        "Ġdiss": 6253,
        "ĠCath": 6254,
        "ĠPass": 6255,
        "ĠPoint": 6256,
        "Ġdoctor": 6257,
        "orrow": 6258,
        "ailed": 6259,
        "ĠRub": 6260,
        "ĠDC": 6261,
        "ĠCharl": 6262,
        "person": 6263,
        "Ġwriter": 6264,
        "ighters": 6265,
        "ureau": 6266,
        "Ġoblig": 6267,
        "Ġrecorded": 6268,
        "Ġbroke": 6269,
        "Ġorders": 6270,
        "ilty": 6271,
        "Ġmotion": 6272,
        "inity": 6273,
        "law": 6274,
        "adium": 6275,
        "Ġimmigration": 6276,
        "Ġcontrast": 6277,
        "Ġbatt": 6278,
        "Ġexcellent": 6279,
        "Ġtechnical": 6280,
        "ami": 6281,
        "Ġtun": 6282,
        "Ġcloud": 6283,
        "ĠYear": 6284,
        "geon": 6285,
        "Ġcreation": 6286,
        "Ġstrange": 6287,
        "Ġauth": 6288,
        "Ġfort": 6289,
        "born": 6290,
        "Ġextent": 6291,
        "ĠToday": 6292,
        "ĠClub": 6293,
        "Ġrain": 6294,
        "Ġsample": 6295,
        "Ġaccepted": 6296,
        "Ġtact": 6297,
        "Ġfired": 6298,
        "ĠSon": 6299,
        "Ġstands": 6300,
        "Ġboot": 6301,
        "Ġ47": 6302,
        "Ġstatements": 6303,
        "Ġversions": 6304,
        "Ġselling": 6305,
        "ounded": 6306,
        "Ġ1990": 6307,
        "Ġweren": 6308,
        "ĠWatch": 6309,
        "Ġexperiment": 6310,
        "Post": 6311,
        "Ġretail": 6312,
        "uled": 6313,
        "Inst": 6314,
        "unte": 6315,
        "ãĥ¼": 6316,
        "Ġdepart": 6317,
        "Ġbond": 6318,
        "ivery": 6319,
        "ompl": 6320,
        "Ġreaction": 6321,
        "ĠSyrian": 6322,
        "ĠPac": 6323,
        "apped": 6324,
        "aniel": 6325,
        "DP": 6326,
        "Ġresolution": 6327,
        "Ġreact": 6328,
        "Ġapproved": 6329,
        "onom": 6330,
        "mond": 6331,
        "ĠOffic": 6332,
        "---": 6333,
        "Ġreplace": 6334,
        "Ġtack": 6335,
        "Ġsport": 6336,
        "Ġchain": 6337,
        "Ġemergency": 6338,
        "rad": 6339,
        "ĠPalestin": 6340,
        "Ġ46": 6341,
        "Ġautomatically": 6342,
        "Ġroute": 6343,
        "Ġpal": 6344,
        "Ġbanks": 6345,
        "ĠParis": 6346,
        "ĠMedia": 6347,
        "road": 6348,
        "icing": 6349,
        "ixt": 6350,
        "isted": 6351,
        "Ġgrew": 6352,
        "Ġcoord": 6353,
        "ĠWhere": 6354,
        "omin": 6355,
        "Ġsubs": 6356,
        "ï¿½ï¿½": 6357,
        "ĠÂ±": 6358,
        "Ġcorporate": 6359,
        "Ġselection": 6360,
        "noon": 6361,
        "ĠReport": 6362,
        "cs": 6363,
        "cluding": 6364,
        "orders": 6365,
        "anche": 6366,
        "ĠIts": 6367,
        "Ġslowly": 6368,
        "ĠEgypt": 6369,
        "ĠAcc": 6370,
        "Ġcolle": 6371,
        "iques": 6372,
        "EX": 6373,
        "Ġattempts": 6374,
        "url": 6375,
        "ĠCross": 6376,
        "Ġfindings": 6377,
        "ĠSC": 6378,
        "ĠOR": 6379,
        "Ġindex": 6380,
        "ensity": 6381,
        "ĠWay": 6382,
        "ĠLand": 6383,
        "Ġshock": 6384,
        "dis": 6385,
        "Ġdynam": 6386,
        "Ġcart": 6387,
        "mosp": 6388,
        "Since": 6389,
        "iest": 6390,
        "ĠBoy": 6391,
        "Ġstorm": 6392,
        "ĠContin": 6393,
        "2013": 6394,
        "hew": 6395,
        "ilit": 6396,
        "Ġessential": 6397,
        "iquid": 6398,
        "Other": 6399,
        "ivered": 6400,
        "Ġreasonable": 6401,
        "Act": 6402,
        "Ġsubsequ": 6403,
        "ĠPack": 6404,
        "ĠFort": 6405,
        "Ġconsidering": 6406,
        "Ġuniversity": 6407,
        "log": 6408,
        "Ġmarried": 6409,
        "Ġillust": 6410,
        "ĠTrue": 6411,
        "£ı": 6412,
        "Ġnumerous": 6413,
        "rastructure": 6414,
        "Ġseriously": 6415,
        "Ġreferred": 6416,
        "ua": 6417,
        "Ġconsistent": 6418,
        "onna": 6419,
        "ĠReal": 6420,
        "ruption": 6421,
        "ciples": 6422,
        "Ġfacts": 6423,
        "91": 6424,
        "otes": 6425,
        "erg": 6426,
        "Then": 6427,
        "Ġaccompl": 6428,
        "Note": 6429,
        "Ġrevenue": 6430,
        "Ġpassing": 6431,
        "Ġmal": 6432,
        "een": 6433,
        "ĠYet": 6434,
        "Ġgather": 6435,
        "terday": 6436,
        "ework": 6437,
        "ĠAuthor": 6438,
        "Pe": 6439,
        "Ġoptim": 6440,
        "Ġrub": 6441,
        "Ġè£ı": 6442,
        "Ġunknown": 6443,
        "stone": 6444,
        "Ġunion": 6445,
        "olve": 6446,
        "Ġopportunities": 6447,
        "Ġbrowser": 6448,
        "ĠWal": 6449,
        "ĠCost": 6450,
        "Ġreporting": 6451,
        "sts": 6452,
        "pet": 6453,
        "Ġsand": 6454,
        "Ġsuddenly": 6455,
        "Ġsurprising": 6456,
        "ĠVR": 6457,
        "Ġsomewhat": 6458,
        "ĠBas": 6459,
        "ulture": 6460,
        "izz": 6461,
        "ĠCD": 6462,
        "Ġchallenges": 6463,
        "Ġsettings": 6464,
        "Ġexperiences": 6465,
        "ĠFull": 6466,
        "Ġcann": 6467,
        "Ġreceiving": 6468,
        "EST": 6469,
        "Ġjoint": 6470,
        "Ġcultural": 6471,
        "Ġast": 6472,
        "82": 6473,
        "astern": 6474,
        "ceived": 6475,
        "ĠCru": 6476,
        "Ġbull": 6477,
        "pired": 6478,
        "amm": 6479,
        "Ġfacing": 6480,
        "power": 6481,
        "Ġboss": 6482,
        "ĠHol": 6483,
        "Ġinstr": 6484,
        "Ġincreasingly": 6485,
        "Ġshift": 6486,
        "Ġstreets": 6487,
        "ĠWilliams": 6488,
        "abb": 6489,
        "Ġlie": 6490,
        "Ġlaugh": 6491,
        "ĠCa": 6492,
        "PL": 6493,
        "Ġadults": 6494,
        "Ġcustomer": 6495,
        "Ġobtained": 6496,
        "Ġsupporting": 6497,
        "html": 6498,
        "fire": 6499,
        "Ġdetailed": 6500,
        "Ġpicked": 6501,
        "ĠRight": 6502,
        "lder": 6503,
        "EE": 6504,
        "stood": 6505,
        "ĠKim": 6506,
        "Ġwire": 6507,
        "Ġsight": 6508,
        "Ġdevelopers": 6509,
        "Ġpersons": 6510,
        "Ġsad": 6511,
        "Ġcup": 6512,
        "Ġwarning": 6513,
        "Ġboys": 6514,
        "long": 6515,
        "Ġbird": 6516,
        "fo": 6517,
        "Ġwal": 6518,
        "Ġobserved": 6519,
        "Ġzone": 6520,
        "iveness": 6521,
        "Ġchannel": 6522,
        "cript": 6523,
        "Ġrefused": 6524,
        "ĠAgain": 6525,
        "Ġsuc": 6526,
        "Ġspokesman": 6527,
        "ĠRef": 6528,
        "rite": 6529,
        "ouston": 6530,
        "ãĥ³": 6531,
        "ĠSher": 6532,
        "Ġacts": 6533,
        "ĠName": 6534,
        "Ġstruggle": 6535,
        "arry": 6536,
        "ometimes": 6537,
        "Ġdiscrim": 6538,
        "HT": 6539,
        "Ġcategory": 6540,
        "Ġrealize": 6541,
        "Ġemployee": 6542,
        "ĠAfghan": 6543,
        "enger": 6544,
        "Ġguns": 6545,
        "ĠSteve": 6546,
        "ĠMot": 6547,
        "ĠOl": 6548,
        "oked": 6549,
        "Ġthick": 6550,
        "Ġfairly": 6551,
        "illy": 6552,
        "Ġsurve": 6553,
        "ĠMat": 6554,
        "weight": 6555,
        "âĶ": 6556,
        "Ġtroops": 6557,
        "Ġagents": 6558,
        "Ġbattery": 6559,
        "Ġmotiv": 6560,
        "Ã¡": 6561,
        "Sec": 6562,
        "den": 6563,
        "overy": 6564,
        "LS": 6565,
        "Ġflu": 6566,
        "Ġconfident": 6567,
        "ĠOper": 6568,
        "Ġempty": 6569,
        "Ġphen": 6570,
        "Ġsector": 6571,
        "Ġexcited": 6572,
        "Ġremote": 6573,
        "aph": 6574,
        "oen": 6575,
        "Ġdestroyed": 6576,
        "Ġmoral": 6577,
        "ĠHP": 6578,
        "ĠRon": 6579,
        "Ġdress": 6580,
        "ĠBat": 6581,
        "Ġlit": 6582,
        "ĠMS": 6583,
        "Ġaf": 6584,
        "HL": 6585,
        "rum": 6586,
        "isms": 6587,
        "Ġshouldn": 6588,
        "Ġsympt": 6589,
        "ĠToronto": 6590,
        "hetic": 6591,
        "Ġcarbon": 6592,
        "Ġinstalled": 6593,
        "Ġviolent": 6594,
        "Ġsolar": 6595,
        "ja": 6596,
        "Ġpractices": 6597,
        "Ġride": 6598,
        "ĠPenn": 6599,
        "Ġimproved": 6600,
        "Ġaudio": 6601,
        "Ġbehavi": 6602,
        "ĠPS": 6603,
        "Ġeating": 6604,
        "Data": 6605,
        "ĠReview": 6606,
        "pass": 6607,
        "claim": 6608,
        "uated": 6609,
        "angers": 6610,
        "chen": 6611,
        "Ġproperties": 6612,
        "Ġanywhere": 6613,
        "Another": 6614,
        "Ġblow": 6615,
        "ĠJackson": 6616,
        "Ġproud": 6617,
        "Ġplane": 6618,
        "lines": 6619,
        "Ġsquare": 6620,
        "Ġproof": 6621,
        "ansas": 6622,
        "Ġtalked": 6623,
        "makers": 6624,
        "Ġsister": 6625,
        "Ġholds": 6626,
        "Ġresident": 6627,
        "Ġ==": 6628,
        "Ġresistance": 6629,
        "Ġsplit": 6630,
        "Ġprosecut": 6631,
        "Ġconfidence": 6632,
        "resents": 6633,
        "Ġcuts": 6634,
        "Ġexception": 6635,
        "Ġzero": 6636,
        "Getty": 6637,
        "Ġcopyright": 6638,
        "Ġtotally": 6639,
        "ormal": 6640,
        "ifications": 6641,
        "ĠAustralian": 6642,
        "Ġsick": 6643,
        "Ġ150": 6644,
        "Ġhousehold": 6645,
        "Ġfees": 6646,
        "Ġdrivers": 6647,
        "ogen": 6648,
        "ĠNY": 6649,
        "Ġnecessarily": 6650,
        "Ġregulations": 6651,
        "earing": 6652,
        "sl": 6653,
        "Ġperspective": 6654,
        "care": 6655,
        "icial": 6656,
        "His": 6657,
        "Ġescape": 6658,
        "Ġsurprised": 6659,
        "ĠVan": 6660,
        "urrent": 6661,
        "Ġvac": 6662,
        "81": 6663,
        "ĠThus": 6664,
        "Ġemphas": 6665,
        "ĠChampions": 6666,
        "ĠIce": 6667,
        "Ġnarr": 6668,
        "Ġheads": 6669,
        "Ġcausing": 6670,
        "bel": 6671,
        "fortunately": 6672,
        "ĠMa": 6673,
        "Ġtargets": 6674,
        "cipl": 6675,
        "Ġafternoon": 6676,
        "Ġadds": 6677,
        "ĠMaybe": 6678,
        "ĠFour": 6679,
        "essed": 6680,
        "plete": 6681,
        "Ġusual": 6682,
        "cho": 6683,
        "ingu": 6684,
        "Ġwithd": 6685,
        "ĠEnergy": 6686,
        "ĠEconom": 6687,
        "OO": 6688,
        "Ġarticles": 6689,
        "Ġinjured": 6690,
        "Ġmanage": 6691,
        "Ġexplains": 6692,
        "Ġdiagn": 6693,
        "Rec": 6694,
        "atures": 6695,
        "Ġlinked": 6696,
        "Ġdiscussed": 6697,
        "Ġexplo": 6698,
        "Ġoccasion": 6699,
        "athan": 6700,
        "Ġopposite": 6701,
        "Ġfaces": 6702,
        "Ġdenied": 6703,
        "ĠKnight": 6704,
        "Ġnut": 6705,
        "Ġapproximately": 6706,
        "Ġdisappoint": 6707,
        "onymous": 6708,
        "ĠBest": 6709,
        "ĠLo": 6710,
        "ĠHy": 6711,
        "ĠAff": 6712,
        "Ġvoting": 6713,
        "anwhile": 6714,
        "ĠIII": 6715,
        "Ġinstitutions": 6716,
        "agram": 6717,
        "ĠDaily": 6718,
        "Ġdrag": 6719,
        "Ġnearby": 6720,
        "Ġguilty": 6721,
        "Ġconver": 6722,
        "Pre": 6723,
        "ship": 6724,
        "Ġreward": 6725,
        "Ġphilosoph": 6726,
        "ĠSS": 6727,
        "ugh": 6728,
        "Ġapps": 6729,
        "friend": 6730,
        "Ġupper": 6731,
        "Ġadvert": 6732,
        "Ġsnow": 6733,
        "Ġfrust": 6734,
        "Ġourselves": 6735,
        "Fr": 6736,
        "ĠDie": 6737,
        "ampion": 6738,
        "Ġdismiss": 6739,
        "Ġcere": 6740,
        "Ġsignal": 6741,
        "from": 6742,
        "Ġ).": 6743,
        "Ġ52": 6744,
        "Ġcrimes": 6745,
        "itors": 6746,
        "estival": 6747,
        "useum": 6748,
        "Ġcouncil": 6749,
        "ĠSaud": 6750,
        "May": 6751,
        "ĠGun": 6752,
        "ician": 6753,
        "ether": 6754,
        "Ġsufficient": 6755,
        "ĠHen": 6756,
        "sole": 6757,
        "Ġhistorical": 6758,
        "ĠFar": 6759,
        "ĠTurn": 6760,
        "Ġpin": 6761,
        "Ġsucceed": 6762,
        "mat": 6763,
        "lymp": 6764,
        "Ġtradition": 6765,
        "ĠOk": 6766,
        "Ġcro": 6767,
        "Ġdescription": 6768,
        "alle": 6769,
        "Ġsky": 6770,
        "Te": 6771,
        "Ġwidely": 6772,
        "Ġwave": 6773,
        "Ġdefinition": 6774,
        "ĠJews": 6775,
        "Ġcycle": 6776,
        "Ġrefere": 6777,
        "Ġbrings": 6778,
        "usal": 6779,
        "Ġalive": 6780,
        "Ġfrequently": 6781,
        "Ġintention": 6782,
        "ĠControl": 6783,
        "lv": 6784,
        "ystem": 6785,
        "Ġprivacy": 6786,
        "gent": 6787,
        "rence": 6788,
        "ĠQuest": 6789,
        "ĠChristmas": 6790,
        "Ġrail": 6791,
        "Ġcooper": 6792,
        "Ġtested": 6793,
        "ĠCapt": 6794,
        "asks": 6795,
        "Ġcomfortable": 6796,
        "Ġdelivered": 6797,
        "scape": 6798,
        "Ġdepth": 6799,
        "ĠGOP": 6800,
        "Ġwrites": 6801,
        "Ġassets": 6802,
        "Ġsav": 6803,
        "iments": 6804,
        "Ġtransition": 6805,
        "Ġartist": 6806,
        "ĠLook": 6807,
        "Ġlob": 6808,
        "Ġcomponents": 6809,
        "arity": 6810,
        "Ġwalked": 6811,
        "Ġroot": 6812,
        "Ġparticipants": 6813,
        "Ġnoticed": 6814,
        "Ġresc": 6815,
        "Ġnav": 6816,
        "ĠAdminist": 6817,
        "da": 6818,
        "utral": 6819,
        "plate": 6820,
        "Ġimportance": 6821,
        "Ġassert": 6822,
        "iously": 6823,
        "cription": 6824,
        "Ġinjuries": 6825,
        "ĠCheck": 6826,
        "Ġregistered": 6827,
        "Ġintent": 6828,
        "Ġmissed": 6829,
        "ographic": 6830,
        "Ġsentence": 6831,
        "ounter": 6832,
        "Ġassistance": 6833,
        "evin": 6834,
        "Ġdatabase": 6835,
        "Ġbuildings": 6836,
        "Ġclassic": 6837,
        "Ġthinks": 6838,
        "ĠOhio": 6839,
        "Pr": 6840,
        "ugg": 6841,
        "Ġfee": 6842,
        "pan": 6843,
        "Ġeffectively": 6844,
        "Ġfacility": 6845,
        "Ġbear": 6846,
        "Ġchapter": 6847,
        "Ġdogs": 6848,
        "ĠColumb": 6849,
        "Ġlatter": 6850,
        "itial": 6851,
        "Ġadmitted": 6852,
        "TV": 6853,
        "ĠGeorg": 6854,
        "Ġposts": 6855,
        "\\\\": 6856,
        "Ġlawyer": 6857,
        "Ġequival": 6858,
        "Ġmand": 6859,
        "Ġcontrolled": 6860,
        "ĠWalk": 6861,
        "ĠAndrew": 6862,
        "Ġmenu": 6863,
        "amental": 6864,
        "Ġprotected": 6865,
        "va": 6866,
        "Ġadministr": 6867,
        "oral": 6868,
        "Ġrein": 6869,
        "ĠSar": 6870,
        "Ġamounts": 6871,
        "Ġnative": 6872,
        "ĠMoon": 6873,
        "Ġrepresents": 6874,
        "Ġabandon": 6875,
        "Ġcarrying": 6876,
        "Ġtank": 6877,
        "mary": 6878,
        "Ġdeclared": 6879,
        "Tube": 6880,
        "Ġhat": 6881,
        "Ġpunish": 6882,
        "ellect": 6883,
        "mes": 6884,
        "Ġuniverse": 6885,
        "ĠRod": 6886,
        "phy": 6887,
        "Ġinfrastructure": 6888,
        "Ġ51": 6889,
        "Ġopposed": 6890,
        "ownt": 6891,
        "ca": 6892,
        "ĠMake": 6893,
        "Ġhardware": 6894,
        "Ġcoffee": 6895,
        "Rel": 6896,
        "bal": 6897,
        "world": 6898,
        "ĠSaf": 6899,
        "ĠSea": 6900,
        "inals": 6901,
        "Ġowned": 6902,
        "Ġhall": 6903,
        "ersion": 6904,
        "Ġdescribe": 6905,
        "ĠPot": 6906,
        "Ġportion": 6907,
        "Ġatmosp": 6908,
        "Ġgovernments": 6909,
        "Ġdepending": 6910,
        "Ġoffense": 6911,
        "Ġtrick": 6912,
        "awa": 6913,
        "ĠLine": 6914,
        "ĠVis": 6915,
        "ĠHard": 6916,
        "ĠOrig": 6917,
        "ĠClick": 6918,
        "Ġdesk": 6919,
        "ĠValley": 6920,
        "ĠSov": 6921,
        "Ġmovies": 6922,
        "Ġremark": 6923,
        "Ġmail": 6924,
        "Ġconscious": 6925,
        "Ġruling": 6926,
        "ĠRights": 6927,
        "Ġmedic": 6928,
        "hent": 6929,
        "ĠWomen": 6930,
        "><": 6931,
        "Ġreplaced": 6932,
        "ĠPrem": 6933,
        "ĠThanks": 6934,
        "Ġrenew": 6935,
        "ĠBall": 6936,
        "iform": 6937,
        "Ġshots": 6938,
        "Comm": 6939,
        "Ġarmed": 6940,
        "Ġconstant": 6941,
        "Ġtaste": 6942,
        "Ġrealized": 6943,
        "Ġbuff": 6944,
        "Ġmo": 6945,
        "Ġefficient": 6946,
        "Most": 6947,
        "oration": 6948,
        "ifies": 6949,
        "Ġcommunication": 6950,
        "Ġflood": 6951,
        "Ġconsequences": 6952,
        "Ġanyway": 6953,
        "igg": 6954,
        "ĠGM": 6955,
        "ĠThank": 6956,
        "Ġiron": 6957,
        "Ġevolution": 6958,
        "ĠCop": 6959,
        "twitter": 6960,
        "Ġ95": 6961,
        "Ġrelationships": 6962,
        "adel": 6963,
        "ĠYoung": 6964,
        "Ġproposal": 6965,
        "ayers": 6966,
        "uilding": 6967,
        "ĠHot": 6968,
        "ORE": 6969,
        "cos": 6970,
        "Ġcollabor": 6971,
        "PG": 6972,
        "axy": 6973,
        "Ġknowing": 6974,
        "Ġsupports": 6975,
        "owed": 6976,
        "Ġcontrols": 6977,
        "Ġmerely": 6978,
        "umer": 6979,
        "Ġathlet": 6980,
        "Ġfashion": 6981,
        "path": 6982,
        "Ġgift": 6983,
        "Ġera": 6984,
        "AND": 6985,
        "Ġkinds": 6986,
        "ĠKorean": 6987,
        "Ġlegit": 6988,
        "ulous": 6989,
        "Ġessentially": 6990,
        "Ġtherap": 6991,
        "nic": 6992,
        "Ġsuffered": 6993,
        "Ġhur": 6994,
        "Ġpromise": 6995,
        "Ġexcess": 6996,
        "Ġoverw": 6997,
        "Ġprime": 6998,
        "ĠHouston": 6999,
        "erry": 7000,
        "ĠMs": 7001,
        "RS": 7002,
        "2012": 7003,
        "Ġstores": 7004,
        "ĠOlymp": 7005,
        "Ġjourney": 7006,
        "Although": 7007,
        "Sub": 7008,
        "ĠEduc": 7009,
        "ĠChapter": 7010,
        "Ġrequests": 7011,
        "Ġconsumers": 7012,
        "Ġtiny": 7013,
        "Ġisol": 7014,
        "ĠFair": 7015,
        "ba": 7016,
        "ĠYOU": 7017,
        "Ġcrash": 7018,
        "celer": 7019,
        "Ġemotional": 7020,
        "Ġgoods": 7021,
        "Ġelected": 7022,
        "Ġmoder": 7023,
        "ĠLinux": 7024,
        "Ġblocks": 7025,
        "Ġisland": 7026,
        "ĠSociety": 7027,
        "Ġelections": 7028,
        "Ġbroadcast": 7029,
        "Ġcheap": 7030,
        "Ġnations": 7031,
        "Ġseasons": 7032,
        "400": 7033,
        "Ġwaste": 7034,
        "ĠSat": 7035,
        "Ġfields": 7036,
        "employ": 7037,
        "Ġprofile": 7038,
        "Ġauthors": 7039,
        "ALL": 7040,
        "ĠGra": 7041,
        "west": 7042,
        "ĠTy": 7043,
        "Ġdeaths": 7044,
        "Ġvacc": 7045,
        "Ġformed": 7046,
        "Ġdu": 7047,
        "Ġongoing": 7048,
        "ĠMuslims": 7049,
        "elf": 7050,
        "igure": 7051,
        "Ġassume": 7052,
        "ĠUkraine": 7053,
        "water": 7054,
        "Ġcoast": 7055,
        "Ġvoted": 7056,
        "gor": 7057,
        "ĠAS": 7058,
        "ĠMichigan": 7059,
        "aza": 7060,
        "ĠArm": 7061,
        "iro": 7062,
        "Ġflex": 7063,
        "asters": 7064,
        "''": 7065,
        "Ġwelcome": 7066,
        "arl": 7067,
        "Ġlocations": 7068,
        "igation": 7069,
        "ĠFil": 7070,
        "Ġbuying": 7071,
        "Ġarchitect": 7072,
        "Ġharder": 7073,
        "ĠCub": 7074,
        "Ġinterface": 7075,
        "Ġrestaurant": 7076,
        "Ġdiscover": 7077,
        "Ġexceed": 7078,
        "Ġfavour": 7079,
        "gery": 7080,
        "Ġduty": 7081,
        "Ġpitch": 7082,
        "ador": 7083,
        "ĠMach": 7084,
        "boy": 7085,
        "Ġresponded": 7086,
        "Ġextended": 7087,
        "hers": 7088,
        "Many": 7089,
        "raid": 7090,
        "ifer": 7091,
        "ĠIns": 7092,
        "Ser": 7093,
        "Ġmedium": 7094,
        "she": 7095,
        "ĠSports": 7096,
        "Ġmagazine": 7097,
        "utation": 7098,
        "Ġlimits": 7099,
        "ĠGall": 7100,
        "Ġexternal": 7101,
        "razil": 7102,
        "Ġyounger": 7103,
        "tle": 7104,
        "Ġremind": 7105,
        "ĠCON": 7106,
        "Ġimmediate": 7107,
        "Ġhidden": 7108,
        "Ġvolunte": 7109,
        "Ġsimpl": 7110,
        "odcast": 7111,
        "Ġphase": 7112,
        "dr": 7113,
        "Ġplot": 7114,
        "Ġexposure": 7115,
        "RI": 7116,
        "ograp": 7117,
        "vin": 7118,
        "anish": 7119,
        "ĠAcad": 7120,
        "ĠEngine": 7121,
        "Ġexpansion": 7122,
        "ĠPay": 7123,
        "Your": 7124,
        "Ġpushed": 7125,
        "ĠEll": 7126,
        "ĠHead": 7127,
        "Ġmarketing": 7128,
        "ĠAC": 7129,
        "ket": 7130,
        "Ġhits": 7131,
        "Ġgro": 7132,
        "ĠAge": 7133,
        "ĠScot": 7134,
        "][": 7135,
        "Ġstim": 7136,
        "ĠiPhone": 7137,
        "ĪĴ": 7138,
        "Ġnarrow": 7139,
        "ĠGetty": 7140,
        "ĠTurkey": 7141,
        "Ġperfectly": 7142,
        "Ġenable": 7143,
        "utch": 7144,
        "Ġprecise": 7145,
        "Ġregime": 7146,
        "Ġshif": 7147,
        "Ġcompens": 7148,
        "gun": 7149,
        "div": 7150,
        "Ġchosen": 7151,
        "ĠKen": 7152,
        "Any": 7153,
        "Ġtrees": 7154,
        "Ġrecommended": 7155,
        "ĠRen": 7156,
        "uable": 7157,
        "ĠHT": 7158,
        "Follow": 7159,
        "EG": 7160,
        "ĠHand": 7161,
        "ĠKenn": 7162,
        "Ġarguments": 7163,
        "Ġexists": 7164,
        "Ġbike": 7165,
        "ĠConserv": 7166,
        "Ġbreaking": 7167,
        "ĠGar": 7168,
        "Ġcrazy": 7169,
        "Ġvirtual": 7170,
        "aylor": 7171,
        "ixel": 7172,
        "Ġ1980": 7173,
        "Ġpermission": 7174,
        "ĠSeries": 7175,
        "Ġconsumer": 7176,
        "Ġclosely": 7177,
        "called": 7178,
        "Ġ54": 7179,
        "Ġhopes": 7180,
        "Ġarray": 7181,
        "ĠWin": 7182,
        "ĠLabour": 7183,
        "Ġspons": 7184,
        "ĠIre": 7185,
        "Ġpow": 7186,
        "Ġreaders": 7187,
        "Ġemployment": 7188,
        "Ġcreature": 7189,
        "Ġresulting": 7190,
        "Ġaccurate": 7191,
        "Ġmoments": 7192,
        "Ġargued": 7193,
        "Ġped": 7194,
        "During": 7195,
        "Ġ53": 7196,
        "ĠTal": 7197,
        "Ġsought": 7198,
        "Ġsuffering": 7199,
        "Ġicon": 7200,
        "lee": 7201,
        "Ġ($": 7202,
        "alian": 7203,
        "Â°": 7204,
        "Ġpra": 7205,
        "Ġbonus": 7206,
        "(\"": 7207,
        "ko": 7208,
        "Ġacting": 7209,
        "DE": 7210,
        "fall": 7211,
        "Ġcomparison": 7212,
        "Ġsmooth": 7213,
        "ĠNAS": 7214,
        "upp": 7215,
        "ĠJoseph": 7216,
        "eping": 7217,
        "ĠTake": 7218,
        "ĠMid": 7219,
        "Ġsending": 7220,
        "fast": 7221,
        "ĠFall": 7222,
        "Ġdealing": 7223,
        "user": 7224,
        "ĠOrgan": 7225,
        "Co": 7226,
        "Ġattached": 7227,
        "Ġsees": 7228,
        "%.": 7229,
        "Ġtypical": 7230,
        "ART": 7231,
        "Ġfinds": 7232,
        "ĠAsia": 7233,
        "umin": 7234,
        "ĠCore": 7235,
        "ĠEnt": 7236,
        "inent": 7237,
        "uce": 7238,
        "ĠBlood": 7239,
        "ĠNever": 7240,
        "Ġemails": 7241,
        "Ġhighlight": 7242,
        "Ġconfront": 7243,
        "atus": 7244,
        "uted": 7245,
        "Ġunus": 7246,
        "Ġtopic": 7247,
        "ĠAdam": 7248,
        "Ġble": 7249,
        "ati": 7250,
        "Ġunderstood": 7251,
        "Set": 7252,
        "struct": 7253,
        "TP": 7254,
        "Ġmob": 7255,
        "aa": 7256,
        "ĠStart": 7257,
        "pected": 7258,
        "sell": 7259,
        "Ġdedicated": 7260,
        "ĠCA": 7261,
        "uan": 7262,
        "Ġsongs": 7263,
        "escription": 7264,
        "Ġtech": 7265,
        "Ġrape": 7266,
        "Ġaside": 7267,
        "Ġgrant": 7268,
        "Ġ56": 7269,
        "sub": 7270,
        "Ġargue": 7271,
        "Ġcontaining": 7272,
        "Ġschedule": 7273,
        "Ġliberal": 7274,
        "Ġpublicly": 7275,
        "Ġheavily": 7276,
        "ĠUt": 7277,
        "iner": 7278,
        "ĠSection": 7279,
        "ĠCare": 7280,
        "weet": 7281,
        "ls": 7282,
        "Dis": 7283,
        "âĶĢ": 7284,
        "ĠFollow": 7285,
        "Back": 7286,
        "ĠIT": 7287,
        "Ġbes": 7288,
        "ji": 7289,
        "ĠHit": 7290,
        "ested": 7291,
        "Ġeverybody": 7292,
        "ĠSwed": 7293,
        "Ġfemin": 7294,
        "Ġfacilities": 7295,
        "Ġconven": 7296,
        "Comp": 7297,
        "ĠOS": 7298,
        "core": 7299,
        "Ġanx": 7300,
        "Ġdivision": 7301,
        "ĠCam": 7302,
        "ĠStan": 7303,
        "mates": 7304,
        "Ġexplore": 7305,
        "plom": 7306,
        "Ġshares": 7307,
        "pload": 7308,
        "anes": 7309,
        "Ġideal": 7310,
        "eters": 7311,
        "ĠBase": 7312,
        "Ġplastic": 7313,
        "Ġdistinct": 7314,
        "ĠNetwork": 7315,
        "ĠSeattle": 7316,
        "Ġtrading": 7317,
        "ensus": 7318,
        "intend": 7319,
        "Ġexhib": 7320,
        "Ġinitially": 7321,
        "ĠFood": 7322,
        "Ġthousand": 7323,
        "ĠBusiness": 7324,
        "acter": 7325,
        "Ġparagraph": 7326,
        "Ġroughly": 7327,
        "Ġwww": 7328,
        "Ġcreative": 7329,
        "ĠConf": 7330,
        "Ġconsumption": 7331,
        "Ġfilms": 7332,
        "agan": 7333,
        "Ġobtain": 7334,
        "Ġtall": 7335,
        "Ġtor": 7336,
        "Ġacknowled": 7337,
        "Ġgrown": 7338,
        "alo": 7339,
        "KE": 7340,
        "Ġ400": 7341,
        "enders": 7342,
        "taining": 7343,
        "UG": 7344,
        "Ġsuicide": 7345,
        "Ġwatched": 7346,
        "ĠList": 7347,
        "ali": 7348,
        "rehens": 7349,
        "Ġsurrounding": 7350,
        "Ġpip": 7351,
        "Ġflying": 7352,
        "ĠJava": 7353,
        "ordan": 7354,
        "Ġserving": 7355,
        "inations": 7356,
        "post": 7357,
        "Ġsho": 7358,
        "Av": 7359,
        "Ġjail": 7360,
        "zy": 7361,
        "Ġ1999": 7362,
        "Ġ</": 7363,
        "Ġliterally": 7364,
        "ĠSir": 7365,
        "Ġexposed": 7366,
        "Ġlies": 7367,
        "star": 7368,
        "Ġbat": 7369,
        "Ġearned": 7370,
        "ĠDig": 7371,
        "Ġspecified": 7372,
        "ĠSeason": 7373,
        "Ġdegrees": 7374,
        "Donald": 7375,
        "Ġcentre": 7376,
        "Ġsharing": 7377,
        "Ġwinter": 7378,
        "ĠCO": 7379,
        "Che": 7380,
        "ĠÎ": 7381,
        "MP": 7382,
        "Ġunw": 7383,
        "Ġfewer": 7384,
        "ĠMir": 7385,
        "Ġsomewhere": 7386,
        "ĠKey": 7387,
        "Ġattacked": 7388,
        "ĠKir": 7389,
        "Ġdomain": 7390,
        "Ġstronger": 7391,
        "Ġ99": 7392,
        "Ġpenalty": 7393,
        "Id": 7394,
        "Script": 7395,
        "Ġdeclined": 7396,
        "Ġneck": 7397,
        "Ġfraud": 7398,
        "Ġcurrency": 7399,
        "Ġrising": 7400,
        "RC": 7401,
        "âĢ¦âĢ¦": 7402,
        "Hz": 7403,
        "Ġtab": 7404,
        "Ġtalent": 7405,
        "nam": 7406,
        "ĠNBA": 7407,
        "Ġvillage": 7408,
        "Ġlegs": 7409,
        "ĠNext": 7410,
        "Ed": 7411,
        "Ġacid": 7412,
        "Ġhyd": 7413,
        "800": 7414,
        "Ġinvolving": 7415,
        "ĠImage": 7416,
        "ĠBefore": 7417,
        "Fl": 7418,
        "Ġyesterday": 7419,
        "Source": 7420,
        "Ġterrorist": 7421,
        "Ġsup": 7422,
        "Ġsynt": 7423,
        "ĠSaudi": 7424,
        "Ġwest": 7425,
        "Ġru": 7426,
        "burg": 7427,
        "Ġvisible": 7428,
        "Ġstruck": 7429,
        "rison": 7430,
        "Ġawesome": 7431,
        "Ġdrawn": 7432,
        "Ġanswers": 7433,
        "ĠGirl": 7434,
        "ĠRam": 7435,
        "Ġthreats": 7436,
        "Ġdefeat": 7437,
        "osit": 7438,
        "Ġvent": 7439,
        "aturally": 7440,
        "American": 7441,
        "enda": 7442,
        "ĠHoly": 7443,
        "Ġrum": 7444,
        "%,": 7445,
        "case": 7446,
        "ĠHistory": 7447,
        "ĠYouTube": 7448,
        "Ġsituations": 7449,
        "ĠDNA": 7450,
        "Ste": 7451,
        "Ġsaved": 7452,
        "Item": 7453,
        "Ġrecip": 7454,
        "ologist": 7455,
        "Ġfaced": 7456,
        "Ġelig": 7457,
        "Once": 7458,
        "ĠLi": 7459,
        "uh": 7460,
        "Ġmistake": 7461,
        "ĠDivision": 7462,
        "ĠBell": 7463,
        "Ġsymptoms": 7464,
        "Â®": 7465,
        "Ġdomin": 7466,
        "Ġfalling": 7467,
        "Ġending": 7468,
        "ashes": 7469,
        "Ġmatches": 7470,
        "ĠOnline": 7471,
        "Ġexplanation": 7472,
        "Def": 7473,
        "redit": 7474,
        "Ġanymore": 7475,
        "ĠTotal": 7476,
        "ĠFOR": 7477,
        "ushed": 7478,
        "Ġletters": 7479,
        "Ġrisks": 7480,
        "ĠOK": 7481,
        "Ġreportedly": 7482,
        ":\\": 7483,
        "Ġplate": 7484,
        "Ġsubjects": 7485,
        "Ġattempted": 7486,
        "ifier": 7487,
        "iana": 7488,
        "Ġunlikely": 7489,
        "ĠThough": 7490,
        "uma": 7491,
        "ĠInvest": 7492,
        "ĠPrin": 7493,
        "ican": 7494,
        "ĠDar": 7495,
        "ĠColorado": 7496,
        "aug": 7497,
        "Ġveget": 7498,
        "aos": 7499,
        "ria": 7500,
        "Ġshel": 7501,
        "Ġmarked": 7502,
        "Ġ()": 7503,
        "Ġspr": 7504,
        "po": 7505,
        "ĠLink": 7506,
        "Ġdefe": 7507,
        "ĠJr": 7508,
        "Ġtheme": 7509,
        "Ġpassion": 7510,
        "ĠPen": 7511,
        "Ġinfo": 7512,
        "izer": 7513,
        "Ġshit": 7514,
        "ĠCivil": 7515,
        "apse": 7516,
        "cre": 7517,
        "Ġpoly": 7518,
        "Ġcomponent": 7519,
        "ĠCharles": 7520,
        "ĠIreland": 7521,
        "ĠProv": 7522,
        "Ġdoctors": 7523,
        "Ġgranted": 7524,
        "Ġpaint": 7525,
        "Ġhonor": 7526,
        "Ġsmoke": 7527,
        "Ġpayments": 7528,
        "Ġprimarily": 7529,
        "ĠKingdom": 7530,
        "rich": 7531,
        "atell": 7532,
        "Ġdeals": 7533,
        "Ġscheduled": 7534,
        "Ġfundamental": 7535,
        "Ġprotein": 7536,
        "Ġnewspaper": 7537,
        "Ġclients": 7538,
        "ython": 7539,
        "ĠDate": 7540,
        "hus": 7541,
        "Ġfeedback": 7542,
        "Ġstretch": 7543,
        "Ġcock": 7544,
        "Ġhotel": 7545,
        "ĠQueen": 7546,
        "Ġsugar": 7547,
        "Ġju": 7548,
        "Ġmilk": 7549,
        "Ġapproval": 7550,
        "ĠLive": 7551,
        "Ġequivalent": 7552,
        "efully": 7553,
        "Ġinsert": 7554,
        "zona": 7555,
        "Ġextension": 7556,
        "dri": 7557,
        "John": 7558,
        "Ġaccomp": 7559,
        "Sm": 7560,
        "ĠFund": 7561,
        "Ġconstantly": 7562,
        "Ġ``": 7563,
        "Ġgenerated": 7564,
        "ĠAction": 7565,
        "ĠPsych": 7566,
        "ĠTri": 7567,
        "Ġrecognize": 7568,
        "Ġvary": 7569,
        "pha": 7570,
        "ĠRa": 7571,
        "df": 7572,
        "etch": 7573,
        "ĠSoviet": 7574,
        "Two": 7575,
        "Ġpatterns": 7576,
        "Ġprofession": 7577,
        "aning": 7578,
        "Time": 7579,
        "ĠLim": 7580,
        "Ġcolors": 7581,
        "ĠAz": 7582,
        "ĠTR": 7583,
        "Ġinfect": 7584,
        "Ġphenomen": 7585,
        "Ġshell": 7586,
        "Also": 7587,
        "Ġputs": 7588,
        "Ġdelivery": 7589,
        "Ġbrown": 7590,
        "Ġprocessing": 7591,
        "Ġlights": 7592,
        "essage": 7593,
        "ĠBrook": 7594,
        "ĠAud": 7595,
        "lation": 7596,
        "Ġindustrial": 7597,
        "Like": 7598,
        "ĠBrazil": 7599,
        "rous": 7600,
        "ESS": 7601,
        "ĠLuc": 7602,
        "Ġsomehow": 7603,
        "Ġ85": 7604,
        "Ġproport": 7605,
        "Ġpoliticians": 7606,
        "Ġindicate": 7607,
        "Ġhole": 7608,
        "Ġtechniques": 7609,
        "Ġcompetitive": 7610,
        "Ġphr": 7611,
        "Ġvo": 7612,
        "istent": 7613,
        "ĠDream": 7614,
        "Ġcampus": 7615,
        "Ġaspects": 7616,
        "Ġhelpful": 7617,
        "Ġshield": 7618,
        "orse": 7619,
        "Ġtrigger": 7620,
        "mal": 7621,
        "Ġ58": 7622,
        "Ġtort": 7623,
        "Ġpersonally": 7624,
        "Ġtag": 7625,
        "Ġkeeps": 7626,
        "ĠVideo": 7627,
        "Ġbench": 7628,
        "Ġgap": 7629,
        "aire": 7630,
        "Ġeast": 7631,
        "Ġrecovery": 7632,
        "perial": 7633,
        "Ġprofit": 7634,
        "ĠMic": 7635,
        "Ġ57": 7636,
        "Ġcolon": 7637,
        "Ġstrongly": 7638,
        "style": 7639,
        "Ġallegations": 7640,
        "han": 7641,
        "Ġreporters": 7642,
        "jo": 7643,
        "rine": 7644,
        "arget": 7645,
        "andal": 7646,
        "Ġ03": 7647,
        "Ġflash": 7648,
        "trans": 7649,
        "Ġstrict": 7650,
        "Ġparking": 7651,
        "ĠPakistan": 7652,
        "Ġli": 7653,
        "Ġweird": 7654,
        "ĠEric": 7655,
        "Ġregions": 7656,
        "ĠJun": 7657,
        "Ġintellect": 7658,
        "ĠWH": 7659,
        "oding": 7660,
        "ributes": 7661,
        "upid": 7662,
        "ĠTit": 7663,
        "Ġfinger": 7664,
        "oria": 7665,
        "Ġelev": 7666,
        "ĠField": 7667,
        "Ġconclusion": 7668,
        ";;": 7669,
        "Ġfeelings": 7670,
        "Ġextensive": 7671,
        "Ġmixed": 7672,
        "Ġneuro": 7673,
        "vy": 7674,
        "Ġharass": 7675,
        "ĠCirc": 7676,
        "ouch": 7677,
        "Ġterritory": 7678,
        "Ġsuccessfully": 7679,
        "Mar": 7680,
        "Ġingred": 7681,
        "Ġoverwhel": 7682,
        "Ġlayer": 7683,
        "View": 7684,
        "Ġallies": 7685,
        "illance": 7686,
        "ĠThree": 7687,
        "Ġbunch": 7688,
        "Ġnormally": 7689,
        "Ġnetworks": 7690,
        "Ġsacr": 7691,
        "ĠCIA": 7692,
        "bles": 7693,
        "Ġchose": 7694,
        "Ġopponents": 7695,
        "Ġregardless": 7696,
        "Ġfranch": 7697,
        "Ġpref": 7698,
        "ĠPo": 7699,
        "Ġbridge": 7700,
        "anna": 7701,
        "ĠSilver": 7702,
        "Ġwage": 7703,
        "page": 7704,
        "rior": 7705,
        "Ġradical": 7706,
        "ĠLittle": 7707,
        "Ġmanip": 7708,
        "Ġsecretary": 7709,
        "Ġgang": 7710,
        "DR": 7711,
        "FA": 7712,
        "Ġdecent": 7713,
        "ĠSpirit": 7714,
        "Ġuncle": 7715,
        "ĠDevelopment": 7716,
        "Ġinvestors": 7717,
        "Ġwalls": 7718,
        "Ġpublish": 7719,
        "Ġgenerate": 7720,
        "issions": 7721,
        "car": 7722,
        "Ġpromote": 7723,
        "Ġcutting": 7724,
        "Ġchest": 7725,
        "Ġdrinking": 7726,
        "Ġcollected": 7727,
        "Ġ72": 7728,
        "Ġhoping": 7729,
        "Ġembr": 7730,
        "gorith": 7731,
        "Ġwarned": 7732,
        "Ġinstructions": 7733,
        "OG": 7734,
        "ĠDid": 7735,
        "ĠAgency": 7736,
        "Ġgear": 7737,
        "Ġcriticism": 7738,
        "ĠFurther": 7739,
        "Ġutil": 7740,
        "anny": 7741,
        "Red": 7742,
        "Ġcounsel": 7743,
        "ĠAsian": 7744,
        "Ġreduction": 7745,
        "pool": 7746,
        "Ġteaching": 7747,
        "Ġdeeply": 7748,
        "iy": 7749,
        "Ġestimates": 7750,
        "Ġchoices": 7751,
        "Ġpermanent": 7752,
        "inem": 7753,
        "kel": 7754,
        "Ġfasc": 7755,
        "pse": 7756,
        "file": 7757,
        "ĠLow": 7758,
        "ĠPerson": 7759,
        "Ġtournament": 7760,
        "stal": 7761,
        "Ġmel": 7762,
        "UST": 7763,
        "ĠRay": 7764,
        "azi": 7765,
        "Val": 7766,
        "Ġcontained": 7767,
        "ĠHolly": 7768,
        "Ġwake": 7769,
        "Ġreveal": 7770,
        "Ġprocesses": 7771,
        "ĠISIS": 7772,
        "Ġ09": 7773,
        "Ġblind": 7774,
        "Ġsteel": 7775,
        "ĠBad": 7776,
        "Ġcarefully": 7777,
        "appy": 7778,
        "roit": 7779,
        "Ġgaming": 7780,
        "Ġhouses": 7781,
        "ĠColl": 7782,
        "Ġtruck": 7783,
        "erm": 7784,
        "Ġscored": 7785,
        "Ġoccas": 7786,
        "return": 7787,
        "bound": 7788,
        "var": 7789,
        "Ġsharp": 7790,
        "Ġafraid": 7791,
        "ĠEX": 7792,
        "amber": 7793,
        "cific": 7794,
        "Ġscheme": 7795,
        "NC": 7796,
        "ĠPolit": 7797,
        "Ġdecline": 7798,
        "Ġ1998": 7799,
        "Ġpushing": 7800,
        "Ġpossession": 7801,
        "Ġprivile": 7802,
        "Ġteachers": 7803,
        "Ġyield": 7804,
        "HA": 7805,
        "ĠDavis": 7806,
        "itled": 7807,
        "########": 7808,
        "Ġrig": 7809,
        "ĠDaniel": 7810,
        "acon": 7811,
        "Ġhide": 7812,
        "uten": 7813,
        "Ġcolleagues": 7814,
        "Ġprinciples": 7815,
        "Ġloud": 7816,
        "Ġsin": 7817,
        "ĠDemon": 7818,
        "Ġstone": 7819,
        "Ġ02": 7820,
        "Ġtaught": 7821,
        "Ġterrible": 7822,
        "Ġstuck": 7823,
        "ĠPolicy": 7824,
        "teen": 7825,
        "Ġimplementation": 7826,
        "ĠBBC": 7827,
        "ĠAPI": 7828,
        "Ġwheel": 7829,
        "allas": 7830,
        "Ġchampions": 7831,
        "olars": 7832,
        "player": 7833,
        "Ġrepeatedly": 7834,
        "ĠStill": 7835,
        "Ġlikes": 7836,
        "asty": 7837,
        "ester": 7838,
        "ĠCatholic": 7839,
        "RL": 7840,
        "Ġbath": 7841,
        "Ġnoise": 7842,
        "title": 7843,
        "Ġnorthern": 7844,
        "Part": 7845,
        "Ġmagn": 7846,
        "Ġfab": 7847,
        "ĠAsh": 7848,
        "Ġdispl": 7849,
        "Ġticket": 7850,
        "Ġmurd": 7851,
        "Ġalongside": 7852,
        "ĠMusic": 7853,
        "Ġriver": 7854,
        "ĠSteel": 7855,
        "ĠCL": 7856,
        "ĠPlayer": 7857,
        "ĠMult": 7858,
        "owing": 7859,
        "rep": 7860,
        "size": 7861,
        "Ġtur": 7862,
        "ĠGeorgia": 7863,
        "iscal": 7864,
        "raction": 7865,
        "Ġcable": 7866,
        "Ġ59": 7867,
        "Ġwins": 7868,
        "Ġupcoming": 7869,
        "Ġsurvive": 7870,
        "Ġinspired": 7871,
        "ĠEducation": 7872,
        "Ġstatistics": 7873,
        "ĠFoot": 7874,
        "iami": 7875,
        "Ġyellow": 7876,
        "ĠPage": 7877,
        ".-": 7878,
        "ĠHas": 7879,
        "Ġurban": 7880,
        "Ġax": 7881,
        "essel": 7882,
        "\\\"": 7883,
        "Ġquarterback": 7884,
        "Ġregister": 7885,
        "ĠLabor": 7886,
        "Ġabilities": 7887,
        "ĠFamily": 7888,
        "Ġvariable": 7889,
        "ĠPrice": 7890,
        "Ġcontem": 7891,
        "Ġthin": 7892,
        "ĠEqu": 7893,
        "data": 7894,
        "Ġgotten": 7895,
        "Ġconstit": 7896,
        "Ġasks": 7897,
        "Ġtail": 7898,
        "Ġexciting": 7899,
        "ĠEffect": 7900,
        "ĠSpanish": 7901,
        "Ġencourage": 7902,
        "inson": 7903,
        "ĠAh": 7904,
        "Ġcommitment": 7905,
        "CS": 7906,
        "Ġrally": 7907,
        "Ġ::": 7908,
        "Ġsubsid": 7909,
        "Ġspin": 7910,
        "Ġcaptured": 7911,
        "2018": 7912,
        "Ġinnoc": 7913,
        "Ġallegedly": 7914,
        "ĠCome": 7915,
        "Ġartists": 7916,
        "ĠNumber": 7917,
        "Ġelectronic": 7918,
        "Ġregional": 7919,
        "apes": 7920,
        "Ġwra": 7921,
        "Ġmyth": 7922,
        "prise": 7923,
        "ĠMiller": 7924,
        "ĠCreat": 7925,
        "ĠEpisode": 7926,
        "bell": 7927,
        "Ġdirected": 7928,
        "Ġextract": 7929,
        "Ġsorry": 7930,
        "Ġvice": 7931,
        "agger": 7932,
        "ĠSupport": 7933,
        "Ġ66": 7934,
        "ĠIron": 7935,
        "Ġwonderful": 7936,
        "Ġgra": 7937,
        "Net": 7938,
        "ione": 7939,
        "Eng": 7940,
        "Ġships": 7941,
        "ikes": 7942,
        "ĠKevin": 7943,
        "itar": 7944,
        "Ġactivists": 7945,
        "true": 7946,
        "ĠArizona": 7947,
        "enth": 7948,
        "ĠDespite": 7949,
        "ĠSE": 7950,
        "Ġhabit": 7951,
        "ernel": 7952,
        "Ġinqu": 7953,
        "Ġabortion": 7954,
        "Ġvoid": 7955,
        "Ġexplicit": 7956,
        "Ġengaged": 7957,
        "Ġangry": 7958,
        "Ġrating": 7959,
        "Ġfrag": 7960,
        "bro": 7961,
        "icking": 7962,
        "dev": 7963,
        "Ġworried": 7964,
        "Ġobser": 7965,
        "Ġapartment": 7966,
        "ĠGT": 7967,
        "Ġestate": 7968,
        "ĠConstitution": 7969,
        "emon": 7970,
        "ĠSnow": 7971,
        "Ġcounty": 7972,
        "Ġdisag": 7973,
        "ĠStephen": 7974,
        "Ġimmigrants": 7975,
        "wind": 7976,
        "ĠNations": 7977,
        "Ġfolks": 7978,
        "Out": 7979,
        "Ġgall": 7980,
        "Ġtargeted": 7981,
        "Ġstead": 7982,
        "ĠBon": 7983,
        "ĠLib": 7984,
        "Ġinformed": 7985,
        "Ġ120": 7986,
        "chain": 7987,
        "idelines": 7988,
        "orough": 7989,
        "Ġdriven": 7990,
        "Ġregularly": 7991,
        "Ġbasket": 7992,
        "Ġprinciple": 7993,
        "ocument": 7994,
        "Ġstun": 7995,
        "ibilities": 7996,
        "ĠRoman": 7997,
        "ĠAbout": 7998,
        "Ġalert": 7999,
        "Ġdemocracy": 8000,
        "Ġrepresented": 8001,
        "HS": 8002,
        "cers": 8003,
        "parent": 8004,
        "Art": 8005,
        "pack": 8006,
        "Ġdiplom": 8007,
        "rets": 8008,
        "ĠNO": 8009,
        "Ġcapture": 8010,
        "ĠAdv": 8011,
        "Ħ¢": 8012,
        "Ġannouncement": 8013,
        "ĠLear": 8014,
        "Ġhook": 8015,
        "Ġpurs": 8016,
        "ĠSuch": 8017,
        "ĠCamer": 8018,
        "Ġrefugees": 8019,
        "ĠVe": 8020,
        "Pol": 8021,
        "Ġrecognized": 8022,
        "lib": 8023,
        "Ġhadn": 8024,
        "Ass": 8025,
        "Ġpilot": 8026,
        "ushing": 8027,
        "Ġreturning": 8028,
        "Ġtrail": 8029,
        "ĠStone": 8030,
        "Ġroutine": 8031,
        "Ġcourts": 8032,
        "Ġdesper": 8033,
        "Ġfriendly": 8034,
        "ĠItaly": 8035,
        "Ġpled": 8036,
        "Ġbreath": 8037,
        "Ġstudio": 8038,
        "NS": 8039,
        "Ġimpressive": 8040,
        "ĠAfghanistan": 8041,
        "Ġfing": 8042,
        "Ġdownt": 8043,
        "inking": 8044,
        "ĠRog": 8045,
        "iary": 8046,
        "color": 8047,
        "sex": 8048,
        "aron": 8049,
        "Ġfault": 8050,
        "ĠNick": 8051,
        "Down": 8052,
        "ĠRose": 8053,
        "ĠSouthern": 8054,
        "XX": 8055,
        "isodes": 8056,
        "List": 8057,
        "600": 8058,
        "Ġoutcome": 8059,
        "err": 8060,
        "Ġelsewhere": 8061,
        "Ġretire": 8062,
        "Ġpounds": 8063,
        "ĠGlobal": 8064,
        "People": 8065,
        "Ġcommunications": 8066,
        "Ġloan": 8067,
        "Ġratio": 8068,
        "ĠEmpire": 8069,
        "Ġgonna": 8070,
        "Ġinvent": 8071,
        "DF": 8072,
        "Ġ1970": 8073,
        "ĠCommon": 8074,
        "pat": 8075,
        "Ġpromised": 8076,
        "Ġdinner": 8077,
        "ĠHom": 8078,
        "Ġcreates": 8079,
        "Ġoperate": 8080,
        "verty": 8081,
        "ĠJordan": 8082,
        "etime": 8083,
        "Ġsustain": 8084,
        "Reg": 8085,
        "Ġincredible": 8086,
        "ima": 8087,
        "Ġwarrant": 8088,
        "Ġmm": 8089,
        "Att": 8090,
        "Ġlawsuit": 8091,
        "Ġreviews": 8092,
        "iture": 8093,
        "ĠSource": 8094,
        "lights": 8095,
        "ĠFord": 8096,
        "Ġ63": 8097,
        "group": 8098,
        "store": 8099,
        "Ġfeatured": 8100,
        "Ġforever": 8101,
        "Ġpoverty": 8102,
        "ĠPop": 8103,
        "ĠCNN": 8104,
        "azz": 8105,
        "abis": 8106,
        "aching": 8107,
        "Ġlaid": 8108,
        "ĠSupp": 8109,
        "Ġfilter": 8110,
        "ena": 8111,
        "ĠCommunity": 8112,
        "Ġcreatures": 8113,
        "uction": 8114,
        "ĠRoyal": 8115,
        "Ġassociation": 8116,
        "ĠConnect": 8117,
        "ĠBrad": 8118,
        "âĸĪ": 8119,
        "lers": 8120,
        "there": 8121,
        "ĠGi": 8122,
        "Ġvaluable": 8123,
        "ACK": 8124,
        "ĠTaylor": 8125,
        "Ġliquid": 8126,
        "ĠAttorney": 8127,
        "ĠCarl": 8128,
        "ĠFinal": 8129,
        "aga": 8130,
        "ĠWilson": 8131,
        "Because": 8132,
        "ĠProfessor": 8133,
        "aka": 8134,
        "Ġincredibly": 8135,
        "rance": 8136,
        "!)": 8137,
        "Ref": 8138,
        "sk": 8139,
        "Ġsolutions": 8140,
        "Ġatmosphere": 8141,
        "Ġblame": 8142,
        "umes": 8143,
        "ĠNob": 8144,
        "CA": 8145,
        "umps": 8146,
        "rical": 8147,
        "ĠPutin": 8148,
        "ĠDest": 8149,
        "oric": 8150,
        "ĠPA": 8151,
        "Ġrespectively": 8152,
        "wan": 8153,
        "Ġfifth": 8154,
        "âĦ¢": 8155,
        "ĠCry": 8156,
        "Ġgovernor": 8157,
        "resident": 8158,
        "Ġpurchased": 8159,
        "Ġhack": 8160,
        "Ġintense": 8161,
        "obs": 8162,
        "Ġorigin": 8163,
        "Ġdefine": 8164,
        "Ġcareful": 8165,
        "***": 8166,
        "Ġshoulder": 8167,
        "Click": 8168,
        "Ġtied": 8169,
        "Ġdestruction": 8170,
        "oured": 8171,
        "Ġnobody": 8172,
        "Ġho": 8173,
        "ĠExper": 8174,
        "Ġtip": 8175,
        "\";": 8176,
        "Ġtechnique": 8177,
        "Ġjur": 8178,
        "ĠPok": 8179,
        "bow": 8180,
        "Ġlegend": 8181,
        "Ġaccord": 8182,
        "Ġbusy": 8183,
        "ĠIntel": 8184,
        "Ġhang": 8185,
        "aki": 8186,
        ".]": 8187,
        "âĢĶâĢĶâĢĶâĢĶ": 8188,
        "Ġsurgery": 8189,
        "Ġreprodu": 8190,
        "Ġuniform": 8191,
        "Ġscenes": 8192,
        "code": 8193,
        "Ġ62": 8194,
        "lisher": 8195,
        "ĠHave": 8196,
        "phia": 8197,
        "Ġcrypt": 8198,
        "Ġrecon": 8199,
        "Ġscream": 8200,
        "Ġadopted": 8201,
        "Ġscores": 8202,
        "Ne": 8203,
        "ĠItalian": 8204,
        "including": 8205,
        "BO": 8206,
        "Ġindicated": 8207,
        "Ġentertain": 8208,
        "Gu": 8209,
        "Text": 8210,
        "iel": 8211,
        "Ġtwenty": 8212,
        "Ġengage": 8213,
        "offs": 8214,
        "ĠPacific": 8215,
        "Ġsmile": 8216,
        "Ġpersonnel": 8217,
        "Ġtoler": 8218,
        "Ġdoors": 8219,
        "Ġtone": 8220,
        "Ġmachines": 8221,
        "Ġentering": 8222,
        "tenance": 8223,
        "CO": 8224,
        "ĠJersey": 8225,
        "Ġforest": 8226,
        "Ġhorse": 8227,
        "Ġcomplaint": 8228,
        "ĠSpring": 8229,
        "yo": 8230,
        "ĠPlus": 8231,
        "eding": 8232,
        "ĠReturn": 8233,
        "quarters": 8234,
        "ials": 8235,
        "cow": 8236,
        "Ġacademic": 8237,
        "Ġfruit": 8238,
        "Ġ1996": 8239,
        "ogether": 8240,
        "Ġwine": 8241,
        "Ġpursu": 8242,
        "ĠSteven": 8243,
        "Ġlicens": 8244,
        "Who": 8245,
        "Ġclothes": 8246,
        "rection": 8247,
        "Ġsquad": 8248,
        "Ġstable": 8249,
        "Ġraw": 8250,
        "zens": 8251,
        "Star": 8252,
        "uties": 8253,
        "ancer": 8254,
        "Ġkeys": 8255,
        "ĠMu": 8256,
        "Ġcomplicated": 8257,
        "iger": 8258,
        "ĠText": 8259,
        "Ġabsor": 8260,
        "Ġ68": 8261,
        "Ġfunny": 8262,
        "Ġrelief": 8263,
        "ĠLew": 8264,
        "ĠCook": 8265,
        "Ġchart": 8266,
        "Ġdrawing": 8267,
        "GE": 8268,
        "Ġmodule": 8269,
        "ĠBull": 8270,
        "ILL": 8271,
        "Ġsalt": 8272,
        "00000000": 8273,
        "ille": 8274,
        "Ġresource": 8275,
        "away": 8276,
        "adelphia": 8277,
        "ĠBru": 8278,
        "Ġ67": 8279,
        "Ġsomebody": 8280,
        "Ġparticipate": 8281,
        "Ġrose": 8282,
        "wered": 8283,
        "Ġmuscle": 8284,
        "Ġconsent": 8285,
        "Ġcontinuing": 8286,
        "ĠGuardian": 8287,
        "ĠOrder": 8288,
        "regon": 8289,
        "Ġrear": 8290,
        "Ġprovision": 8291,
        "Ġliked": 8292,
        "rient": 8293,
        "Ġbra": 8294,
        "Trans": 8295,
        "Ġmeetings": 8296,
        "Ġtox": 8297,
        "Ġconvent": 8298,
        "Ġauto": 8299,
        "Ġrecording": 8300,
        "ĠSoft": 8301,
        "001": 8302,
        "ĠRoll": 8303,
        "Ġprogramming": 8304,
        "Ġpic": 8305,
        "Ġproved": 8306,
        "Ġstab": 8307,
        "ĠAst": 8308,
        "Ġcaption": 8309,
        "ulating": 8310,
        "ĠAttack": 8311,
        "Ġnewly": 8312,
        "Ġ1997": 8313,
        "fr": 8314,
        "Ġdiscipl": 8315,
        "ĠGreek": 8316,
        "Ġedition": 8317,
        "ĠDoes": 8318,
        "ĠBox": 8319,
        "ifle": 8320,
        "acket": 8321,
        "Ġpasses": 8322,
        "Ġguest": 8323,
        "Ġacceler": 8324,
        "itals": 8325,
        "UD": 8326,
        "Ġauthent": 8327,
        "ĠRest": 8328,
        "oval": 8329,
        "ta": 8330,
        "uine": 8331,
        "Ġarmor": 8332,
        "ĠTown": 8333,
        "Ġcompat": 8334,
        "Ġinches": 8335,
        "Despite": 8336,
        "Ġassign": 8337,
        "herent": 8338,
        "Ġprepare": 8339,
        "ĠMeg": 8340,
        "ockey": 8341,
        "Ġdepends": 8342,
        "Ġtracks": 8343,
        "watch": 8344,
        "Ġlists": 8345,
        "ĠNorthern": 8346,
        "Ġalter": 8347,
        "rec": 8348,
        "ĠEastern": 8349,
        "Ġcondem": 8350,
        "Ġeverywhere": 8351,
        "?'": 8352,
        "Ġaffili": 8353,
        "Ġfought": 8354,
        "\":{\"": 8355,
        "Ġmac": 8356,
        "itarian": 8357,
        "Ġscope": 8358,
        "ĠAL": 8359,
        "aws": 8360,
        "arms": 8361,
        "Ġque": 8362,
        "Ġenjoyed": 8363,
        "nesota": 8364,
        "Ġaggressive": 8365,
        "ĠStory": 8366,
        "ĠIV": 8367,
        "Ġrecipe": 8368,
        "Ġrarely": 8369,
        "ĠMedical": 8370,
        "value": 8371,
        "angel": 8372,
        "aying": 8373,
        "omething": 8374,
        "Ġsubsection": 8375,
        "Ġsouthern": 8376,
        "Ġfrequency": 8377,
        "rete": 8378,
        "rolled": 8379,
        "ults": 8380,
        "ĠNic": 8381,
        "Ġbehalf": 8382,
        "Ġsequence": 8383,
        "abet": 8384,
        "Ġcontroversial": 8385,
        "Ġcomprom": 8386,
        "Ġworker": 8387,
        "Ġmainly": 8388,
        "Ġalgorith": 8389,
        "ĠMajor": 8390,
        "orce": 8391,
        "gender": 8392,
        "Ġorganized": 8393,
        "Ġfake": 8394,
        "Ġconcluded": 8395,
        "ĠED": 8396,
        "ĠExec": 8397,
        "rage": 8398,
        "Ġchances": 8399,
        "berry": 8400,
        "ĠTrad": 8401,
        "Ġconfiguration": 8402,
        "Ġwithdraw": 8403,
        "Ġfro": 8404,
        "udes": 8405,
        "ĠBrother": 8406,
        "ĠBrian": 8407,
        "Ġtries": 8408,
        "Ġsamples": 8409,
        "Ġbid": 8410,
        "ĠGolden": 8411,
        "Ġphotograph": 8412,
        "ifest": 8413,
        "ĠDO": 8414,
        "ĠParliament": 8415,
        "****************": 8416,
        "Rem": 8417,
        "Ġcontest": 8418,
        "Ġsigning": 8419,
        "px": 8420,
        "ĠZeal": 8421,
        "âĶĢâĶĢ": 8422,
        "Ear": 8423,
        "Ġexit": 8424,
        "Before": 8425,
        "ĠCorpor": 8426,
        "null": 8427,
        "month": 8428,
        "Ġracial": 8429,
        "otted": 8430,
        "ĠVeg": 8431,
        "ĠReuters": 8432,
        "Ġsword": 8433,
        "pson": 8434,
        "ĠRomney": 8435,
        "aed": 8436,
        "Ġtrib": 8437,
        "Ġinner": 8438,
        "Ġprotocol": 8439,
        "ĠBi": 8440,
        "ĠMiami": 8441,
        "everal": 8442,
        "press": 8443,
        "Ġshipping": 8444,
        "ĠAmendment": 8445,
        "ĠHoward": 8446,
        "connect": 8447,
        "ĠDisc": 8448,
        "ĠJac": 8449,
        "iamond": 8450,
        "ĠTherefore": 8451,
        "ses": 8452,
        "ĠPrincess": 8453,
        "ĠUSB": 8454,
        "ĠAnth": 8455,
        "Ġsurveillance": 8456,
        "Ġapolog": 8457,
        "Ġ61": 8458,
        "owa": 8459,
        "Ġfulf": 8460,
        "js": 8461,
        "Ġluck": 8462,
        "usted": 8463,
        "ĠÂ§": 8464,
        "ni": 8465,
        "Ġanticip": 8466,
        "eman": 8467,
        "Ġwinner": 8468,
        "Ġsilver": 8469,
        "lla": 8470,
        "icity": 8471,
        "Ġunusual": 8472,
        "Ġcrack": 8473,
        "Ġties": 8474,
        "ez": 8475,
        "Ġpractical": 8476,
        "Ġprovince": 8477,
        "ĠPlace": 8478,
        "Ġpriority": 8479,
        "ICE": 8480,
        "Ġdescribes": 8481,
        "Ġbranch": 8482,
        "Form": 8483,
        "aska": 8484,
        "missions": 8485,
        "bi": 8486,
        "Ġporn": 8487,
        "ĠTurk": 8488,
        "Ġenthus": 8489,
        "Ġfighters": 8490,
        "Ġ08": 8491,
        "ĠDetroit": 8492,
        "Ġfoundation": 8493,
        "avid": 8494,
        "Are": 8495,
        "Ġjudgment": 8496,
        "cling": 8497,
        "Ġsolve": 8498,
        "ĠDesign": 8499,
        "Where": 8500,
        "hesis": 8501,
        "ĠTro": 8502,
        "after": 8503,
        "Ġneutral": 8504,
        "ĠPalestinian": 8505,
        "ĠHollywood": 8506,
        "Ġadvis": 8507,
        "ĠNon": 8508,
        "yes": 8509,
        "olis": 8510,
        "Ġreputation": 8511,
        "Ġsmell": 8512,
        "Ġbread": 8513,
        "ĠBul": 8514,
        "ĠBeach": 8515,
        "Ġclaiming": 8516,
        "Ġgenetic": 8517,
        "Ġtechnologies": 8518,
        "Ġupgrade": 8519,
        "rows": 8520,
        "Ġdeveloper": 8521,
        "ĠJosh": 8522,
        "ĠDisney": 8523,
        "erved": 8524,
        "ipal": 8525,
        "Ġunex": 8526,
        "Ġbarely": 8527,
        "then": 8528,
        "ĠPub": 8529,
        "Ġillness": 8530,
        "etary": 8531,
        "ĠBal": 8532,
        "Ġpatch": 8533,
[...]
